/* Copyright 2019 The TensorFlow Authors. All Rights Reserved.

Licensed under the Apache License, Version 2.0 (the "License");
you may not use this file except in compliance with the License.
You may obtain a copy of the License at

    http://www.apache.org/licenses/LICENSE-2.0

Unless required by applicable law or agreed to in writing, software
distributed under the License is distributed on an "AS IS" BASIS,
WITHOUT WARRANTIES OR CONDITIONS OF ANY KIND, either express or implied.
See the License for the specific language governing permissions and
limitations under the License.
==============================================================================*/

// Automatically created from a TensorFlow Lite flatbuffer using the command:
// xxd -i magic_wand_model.tflite > magic_wand_model_data.cc
// See the README for a full description of the creation process.

#include "magic_wand_model_data.h"

// We need to keep the data array aligned on some architectures.
#ifdef __has_attribute
#define HAVE_ATTRIBUTE(x) __has_attribute(x)
#else
#define HAVE_ATTRIBUTE(x) 0
#endif
#if HAVE_ATTRIBUTE(aligned) || (defined(__GNUC__) && !defined(__clang__))
#define DATA_ALIGN_ATTRIBUTE __attribute__((aligned(4)))
#else
#define DATA_ALIGN_ATTRIBUTE
#endif

// CNN
const unsigned char g_magic_wand_model_data[] DATA_ALIGN_ATTRIBUTE   = {
  0x1c, 0x00, 0x00, 0x00, 0x54, 0x46, 0x4c, 0x33, 0x14, 0x00, 0x20, 0x00,
  0x1c, 0x00, 0x18, 0x00, 0x14, 0x00, 0x10, 0x00, 0x0c, 0x00, 0x00, 0x00,
  0x08, 0x00, 0x04, 0x00, 0x14, 0x00, 0x00, 0x00, 0x1c, 0x00, 0x00, 0x00,
  0x88, 0x00, 0x00, 0x00, 0xe0, 0x00, 0x00, 0x00, 0x38, 0x45, 0x00, 0x00,
  0x48, 0x45, 0x00, 0x00, 0xa4, 0x4f, 0x00, 0x00, 0x03, 0x00, 0x00, 0x00,
  0x01, 0x00, 0x00, 0x00, 0x04, 0x00, 0x00, 0x00, 0xbe, 0xb9, 0xff, 0xff,
  0x0c, 0x00, 0x00, 0x00, 0x1c, 0x00, 0x00, 0x00, 0x38, 0x00, 0x00, 0x00,
  0x0f, 0x00, 0x00, 0x00, 0x73, 0x65, 0x72, 0x76, 0x69, 0x6e, 0x67, 0x5f,
  0x64, 0x65, 0x66, 0x61, 0x75, 0x6c, 0x74, 0x00, 0x01, 0x00, 0x00, 0x00,
  0x04, 0x00, 0x00, 0x00, 0x94, 0xff, 0xff, 0xff, 0x11, 0x00, 0x00, 0x00,
  0x04, 0x00, 0x00, 0x00, 0x07, 0x00, 0x00, 0x00, 0x64, 0x65, 0x6e, 0x73,
  0x65, 0x5f, 0x31, 0x00, 0x01, 0x00, 0x00, 0x00, 0x04, 0x00, 0x00, 0x00,
  0x9e, 0xba, 0xff, 0xff, 0x04, 0x00, 0x00, 0x00, 0x0c, 0x00, 0x00, 0x00,
  0x63, 0x6f, 0x6e, 0x76, 0x32, 0x64, 0x5f, 0x69, 0x6e, 0x70, 0x75, 0x74,
  0x00, 0x00, 0x00, 0x00, 0x02, 0x00, 0x00, 0x00, 0x34, 0x00, 0x00, 0x00,
  0x04, 0x00, 0x00, 0x00, 0xdc, 0xff, 0xff, 0xff, 0x14, 0x00, 0x00, 0x00,
  0x04, 0x00, 0x00, 0x00, 0x13, 0x00, 0x00, 0x00, 0x43, 0x4f, 0x4e, 0x56,
  0x45, 0x52, 0x53, 0x49, 0x4f, 0x4e, 0x5f, 0x4d, 0x45, 0x54, 0x41, 0x44,
  0x41, 0x54, 0x41, 0x00, 0x08, 0x00, 0x0c, 0x00, 0x08, 0x00, 0x04, 0x00,
  0x08, 0x00, 0x00, 0x00, 0x13, 0x00, 0x00, 0x00, 0x04, 0x00, 0x00, 0x00,
  0x13, 0x00, 0x00, 0x00, 0x6d, 0x69, 0x6e, 0x5f, 0x72, 0x75, 0x6e, 0x74,
  0x69, 0x6d, 0x65, 0x5f, 0x76, 0x65, 0x72, 0x73, 0x69, 0x6f, 0x6e, 0x00,
  0x15, 0x00, 0x00, 0x00, 0x54, 0x44, 0x00, 0x00, 0x4c, 0x44, 0x00, 0x00,
  0x1c, 0x44, 0x00, 0x00, 0xcc, 0x43, 0x00, 0x00, 0x3c, 0x42, 0x00, 0x00,
  0x2c, 0x3a, 0x00, 0x00, 0xdc, 0x39, 0x00, 0x00, 0xc0, 0x39, 0x00, 0x00,
  0xa8, 0x39, 0x00, 0x00, 0x98, 0x01, 0x00, 0x00, 0xc8, 0x00, 0x00, 0x00,
  0xc0, 0x00, 0x00, 0x00, 0xb8, 0x00, 0x00, 0x00, 0xb0, 0x00, 0x00, 0x00,
  0xa8, 0x00, 0x00, 0x00, 0xa0, 0x00, 0x00, 0x00, 0x98, 0x00, 0x00, 0x00,
  0x90, 0x00, 0x00, 0x00, 0x88, 0x00, 0x00, 0x00, 0x68, 0x00, 0x00, 0x00,
  0x04, 0x00, 0x00, 0x00, 0x6e, 0xbb, 0xff, 0xff, 0x04, 0x00, 0x00, 0x00,
  0x54, 0x00, 0x00, 0x00, 0x0c, 0x00, 0x00, 0x00, 0x08, 0x00, 0x0e, 0x00,
  0x08, 0x00, 0x04, 0x00, 0x08, 0x00, 0x00, 0x00, 0x10, 0x00, 0x00, 0x00,
  0x24, 0x00, 0x00, 0x00, 0x00, 0x00, 0x06, 0x00, 0x08, 0x00, 0x04, 0x00,
  0x06, 0x00, 0x00, 0x00, 0x04, 0x00, 0x00, 0x00, 0x00, 0x00, 0x00, 0x00,
  0x00, 0x00, 0x0a, 0x00, 0x10, 0x00, 0x0c, 0x00, 0x08, 0x00, 0x04, 0x00,
  0x0a, 0x00, 0x00, 0x00, 0x02, 0x00, 0x00, 0x00, 0x02, 0x00, 0x00, 0x00,
  0x04, 0x00, 0x00, 0x00, 0x06, 0x00, 0x00, 0x00, 0x32, 0x2e, 0x31, 0x35,
  0x2e, 0x30, 0x00, 0x00, 0xce, 0xbb, 0xff, 0xff, 0x04, 0x00, 0x00, 0x00,
  0x10, 0x00, 0x00, 0x00, 0x31, 0x2e, 0x35, 0x2e, 0x30, 0x00, 0x00, 0x00,
  0x00, 0x00, 0x00, 0x00, 0x00, 0x00, 0x00, 0x00, 0x44, 0xb2, 0xff, 0xff,
  0x48, 0xb2, 0xff, 0xff, 0x4c, 0xb2, 0xff, 0xff, 0x50, 0xb2, 0xff, 0xff,
  0x54, 0xb2, 0xff, 0xff, 0x58, 0xb2, 0xff, 0xff, 0x5c, 0xb2, 0xff, 0xff,
  0x60, 0xb2, 0xff, 0xff, 0x0a, 0xbc, 0xff, 0xff, 0x04, 0x00, 0x00, 0x00,
  0xc0, 0x00, 0x00, 0x00, 0x21, 0x58, 0x94, 0x3e, 0x2d, 0x64, 0x23, 0xbf,
  0x45, 0x65, 0x07, 0x3f, 0x60, 0x69, 0x8c, 0xbf, 0x0c, 0xe3, 0xca, 0xbf,
  0x47, 0x77, 0x3e, 0x3e, 0xea, 0x92, 0x64, 0xbf, 0xcb, 0x0b, 0x05, 0xbf,
  0x20, 0x93, 0x65, 0xbf, 0x27, 0x7b, 0x1d, 0x3f, 0x9f, 0x23, 0x11, 0x3e,
  0x7e, 0xc6, 0x0b, 0x3f, 0xa5, 0xd8, 0x2b, 0x3f, 0x52, 0x76, 0x13, 0xbf,
  0xfe, 0xb2, 0xf6, 0xbe, 0x56, 0xe7, 0xd7, 0x3e, 0xb7, 0xf7, 0x9b, 0x3e,
  0x13, 0x16, 0x0d, 0xbf, 0x32, 0xdf, 0x0e, 0xbf, 0x44, 0x7d, 0x0a, 0x3f,
  0x6d, 0x0c, 0x45, 0x3e, 0x3a, 0xe0, 0x0a, 0xbc, 0x15, 0xa2, 0x0c, 0x3f,
  0x25, 0xeb, 0x0d, 0x3d, 0x25, 0x06, 0xfc, 0xbc, 0x26, 0xf0, 0xaf, 0x3e,
  0x9f, 0x51, 0x88, 0x3e, 0x5e, 0x38, 0x55, 0xbf, 0x1e, 0xda, 0x0a, 0x3f,
  0x45, 0xa6, 0xde, 0x3e, 0x38, 0x76, 0x63, 0x3e, 0x34, 0x55, 0x90, 0xbe,
  0x16, 0x1d, 0x0a, 0xbf, 0xe2, 0xc1, 0x11, 0xbd, 0x40, 0x6d, 0x05, 0x3f,
  0xb7, 0x2e, 0xb8, 0x3d, 0x27, 0x99, 0x6c, 0xbe, 0xd7, 0x7e, 0x25, 0x3f,
  0x6a, 0xa8, 0x0c, 0x3f, 0x7b, 0x36, 0x44, 0x3e, 0x28, 0x71, 0xb8, 0xbd,
  0xc1, 0xe5, 0xf2, 0xbe, 0xfc, 0x50, 0xf5, 0xbe, 0xd1, 0x56, 0x9e, 0x3e,
  0xd7, 0xb5, 0x0d, 0xbe, 0x38, 0x85, 0xc8, 0xbc, 0x02, 0x98, 0xd8, 0xbe,
  0xf8, 0x4f, 0x5e, 0xbe, 0xd6, 0xbc, 0xff, 0xff, 0x04, 0x00, 0x00, 0x00,
  0x00, 0x38, 0x00, 0x00, 0x21, 0xaa, 0x09, 0xbe, 0xb3, 0x31, 0x44, 0x3e,
  0xe6, 0xfc, 0x82, 0x3d, 0xab, 0xa5, 0x88, 0x3e, 0x65, 0x30, 0xb9, 0xbe,
  0x38, 0xb5, 0x6b, 0xbd, 0xcd, 0x19, 0x01, 0x3e, 0x84, 0x86, 0x6c, 0x3e,
  0xb0, 0x46, 0x17, 0xbe, 0x3f, 0xb1, 0x18, 0xbf, 0xb9, 0xf1, 0x35, 0x3f,
  0x78, 0x13, 0xe0, 0xbe, 0xc8, 0x8f, 0x41, 0x3e, 0x0a, 0xd9, 0x1c, 0x3e,
  0x26, 0x8c, 0x3c, 0xbe, 0x66, 0xdd, 0x45, 0xbf, 0x5b, 0xac, 0x1b, 0xbd,
  0xdf, 0xab, 0xa6, 0x3e, 0xf7, 0x0f, 0x50, 0xbe, 0x4f, 0xbf, 0xc5, 0x3e,
  0xa7, 0xa5, 0x11, 0xbf, 0x01, 0x9c, 0x2b, 0x3e, 0x61, 0x5f, 0x1a, 0xbe,
  0x94, 0xa8, 0x9b, 0x3e, 0xf3, 0x0d, 0xb9, 0xbd, 0xdd, 0x1d, 0xe6, 0xbc,
  0x88, 0x39, 0xf3, 0x3d, 0x17, 0xe1, 0x3c, 0x3d, 0xf9, 0x60, 0x03, 0x3d,
  0x74, 0xc0, 0x02, 0x3f, 0xc7, 0xca, 0x96, 0x3e, 0xda, 0xf8, 0x10, 0x3d,
  0xca, 0xa2, 0xac, 0xbd, 0x75, 0xaa, 0xa1, 0x3e, 0x80, 0x5c, 0x41, 0xbe,
  0xcd, 0xc7, 0x7d, 0x3d, 0x57, 0x59, 0x0f, 0x3e, 0x83, 0x5f, 0x73, 0xbc,
  0xef, 0x9a, 0x1f, 0x3e, 0x2c, 0xda, 0x05, 0x3e, 0xfe, 0xe9, 0xbd, 0xbe,
  0x9e, 0xbf, 0x0c, 0x3f, 0xc7, 0xfe, 0xa3, 0xbc, 0x55, 0xe5, 0xb6, 0xbe,
  0x85, 0x2d, 0x07, 0xbd, 0xe6, 0x46, 0x8d, 0x3e, 0xfc, 0xe9, 0x9d, 0xbe,
  0x5c, 0x08, 0x35, 0xbe, 0x6d, 0x9e, 0xdd, 0xbb, 0x49, 0xdc, 0x94, 0x3e,
  0xa3, 0xc8, 0x5a, 0xbe, 0x42, 0x64, 0x3b, 0x3e, 0x05, 0x7f, 0x62, 0x3e,
  0xed, 0x92, 0xa8, 0x3d, 0xf9, 0xe6, 0xe6, 0x3c, 0x68, 0x9c, 0xa3, 0xbd,
  0x8a, 0x99, 0xf9, 0xbe, 0x7f, 0x17, 0xb4, 0x3b, 0x3f, 0xf4, 0x1f, 0x3e,
  0x1b, 0x9d, 0xfd, 0xbe, 0x30, 0xcc, 0x9f, 0xbe, 0x0d, 0x4a, 0xf8, 0x3e,
  0xc6, 0xc6, 0x17, 0xbe, 0x2a, 0x26, 0xf5, 0x3d, 0x27, 0x64, 0x71, 0xbe,
  0x0c, 0xb8, 0x41, 0x3e, 0x1a, 0xe9, 0x7a, 0xbd, 0xeb, 0x96, 0xc6, 0xbd,
  0x86, 0x54, 0x00, 0x3f, 0xb7, 0x89, 0xc5, 0x3e, 0x51, 0x69, 0x44, 0x3d,
  0x6a, 0xa7, 0x91, 0xbd, 0xc7, 0x5b, 0xbf, 0xbe, 0xf1, 0x6c, 0x60, 0xbd,
  0x74, 0xfb, 0xd3, 0x3d, 0xa7, 0xcd, 0x81, 0x3d, 0xdd, 0xa6, 0x83, 0xbe,
  0xa3, 0x94, 0x4a, 0x3e, 0xad, 0x42, 0x57, 0xbd, 0x3f, 0xc8, 0x66, 0xbd,
  0xcd, 0x3e, 0x32, 0xbe, 0x35, 0x37, 0x45, 0x3e, 0xca, 0x4f, 0x43, 0xbe,
  0x3e, 0x57, 0x8d, 0xbd, 0xdb, 0x9b, 0x15, 0x3f, 0x5d, 0x94, 0x53, 0x3e,
  0x56, 0x39, 0x47, 0xbe, 0xb3, 0x2f, 0x86, 0x3d, 0x40, 0xc5, 0xfa, 0xbe,
  0x8b, 0xac, 0x7a, 0x3e, 0x54, 0x42, 0x6b, 0x3e, 0x47, 0x6d, 0xe1, 0xbd,
  0x52, 0x5a, 0x87, 0xbe, 0xf5, 0xf0, 0xc4, 0x3e, 0x49, 0x68, 0xf4, 0xbd,
  0x25, 0xb1, 0x2f, 0xbd, 0xfa, 0x86, 0xce, 0xbb, 0x00, 0xb8, 0x45, 0x3d,
  0xdf, 0xe5, 0x91, 0xbc, 0x09, 0x17, 0x17, 0xbd, 0xf7, 0x22, 0x16, 0x3f,
  0xcd, 0x00, 0xb3, 0x3e, 0x5d, 0x82, 0xf4, 0x3d, 0x4c, 0x36, 0x12, 0x3e,
  0x6d, 0xf9, 0x12, 0xbe, 0xa4, 0xec, 0x80, 0x3d, 0x5a, 0xfb, 0xf6, 0x3c,
  0x8b, 0x6b, 0x8d, 0x3d, 0x9c, 0xff, 0x32, 0xbe, 0xd7, 0x6d, 0xfe, 0x3d,
  0x54, 0x12, 0x06, 0xbe, 0xec, 0xf6, 0xa4, 0x3e, 0xaf, 0xcc, 0xee, 0x3d,
  0xbb, 0x41, 0xd5, 0x3c, 0x79, 0xae, 0xaa, 0xbd, 0x38, 0x29, 0x01, 0xbe,
  0xf9, 0x00, 0x80, 0x3e, 0xb0, 0xff, 0x9a, 0x3e, 0xcc, 0xb0, 0x45, 0xbd,
  0x27, 0x03, 0x37, 0xbe, 0x5d, 0x21, 0x9a, 0xbe, 0xb6, 0x85, 0x1f, 0x3e,
  0x59, 0x3f, 0x28, 0x3e, 0xbe, 0x25, 0x09, 0xbd, 0x55, 0xa9, 0xa4, 0xbd,
  0xb1, 0x3c, 0x85, 0x3e, 0x65, 0x93, 0x30, 0xbe, 0xcd, 0x49, 0x82, 0x3e,
  0x94, 0x3d, 0xc5, 0x3e, 0x00, 0xe2, 0xc1, 0x3c, 0x80, 0xc9, 0xb6, 0xbd,
  0x4e, 0x4a, 0x85, 0xbc, 0x03, 0x4e, 0xf5, 0x3e, 0x4d, 0x83, 0x62, 0x3c,
  0x51, 0x91, 0x7d, 0xbe, 0x5a, 0x1d, 0xb8, 0xbd, 0xb5, 0xc9, 0x00, 0xbe,
  0x22, 0x1e, 0xd3, 0x3d, 0xca, 0x5e, 0x71, 0xbe, 0x8b, 0xdc, 0x23, 0xbe,
  0x1e, 0xf1, 0x5b, 0xbe, 0xec, 0x4c, 0x88, 0x3e, 0x8f, 0x7b, 0xb0, 0xbd,
  0x93, 0x3b, 0x32, 0xbe, 0x7f, 0xf6, 0xe6, 0xbc, 0x25, 0x19, 0x02, 0xbe,
  0x0a, 0xd7, 0x33, 0xbe, 0xfc, 0x4e, 0xff, 0xbd, 0x2b, 0x48, 0xec, 0x3e,
  0xae, 0x47, 0x8c, 0x3e, 0x7d, 0x8d, 0x10, 0xbe, 0xaa, 0xf1, 0x57, 0xbe,
  0x8e, 0x96, 0x5e, 0xbc, 0xcb, 0x32, 0x32, 0x3e, 0xc8, 0x87, 0x03, 0xbf,
  0x2b, 0x2a, 0x01, 0x3e, 0x91, 0xfa, 0x94, 0x3c, 0x67, 0x8d, 0x51, 0xbe,
  0x9e, 0xfb, 0xd1, 0x3d, 0x5d, 0xb6, 0xba, 0xbe, 0x98, 0x45, 0x4a, 0xbd,
  0x4d, 0x59, 0x67, 0xbd, 0x3f, 0xdd, 0x7a, 0xbe, 0xd9, 0x4b, 0x64, 0xbe,
  0xe7, 0xed, 0x98, 0x3e, 0xa2, 0x86, 0x19, 0xbe, 0xb0, 0xec, 0x44, 0xbf,
  0x2b, 0xd6, 0x35, 0xbd, 0xf2, 0x3d, 0x22, 0xbd, 0x63, 0xc1, 0x60, 0x3e,
  0xa2, 0xb0, 0x52, 0xbe, 0xd9, 0x50, 0x86, 0x3e, 0x46, 0xac, 0xab, 0xbe,
  0xf7, 0xe7, 0x09, 0x3f, 0x89, 0xc2, 0x37, 0x3e, 0x55, 0x4a, 0xf4, 0xbe,
  0x64, 0xcc, 0xeb, 0x3b, 0x91, 0x2c, 0x1a, 0xbe, 0xb8, 0xf1, 0xa6, 0xbe,
  0xf4, 0xc1, 0x1f, 0xbe, 0xf8, 0x4a, 0xec, 0x3e, 0xa9, 0xc6, 0x07, 0xbe,
  0x37, 0x9d, 0x6b, 0xbf, 0x8b, 0xed, 0x1d, 0x3e, 0xcf, 0x40, 0x7e, 0xbd,
  0x0a, 0x5c, 0xa0, 0x3d, 0xb0, 0x77, 0x96, 0xbd, 0xe6, 0x21, 0x42, 0xbd,
  0x57, 0x0a, 0x85, 0x3c, 0x9a, 0x47, 0xdc, 0x3e, 0xe8, 0x90, 0xfe, 0x3d,
  0x88, 0x23, 0x28, 0x3f, 0xcb, 0x62, 0x0a, 0x3e, 0x9b, 0xc3, 0x85, 0xbe,
  0x57, 0x7f, 0x10, 0xbe, 0x30, 0xa8, 0x56, 0xbe, 0xb3, 0xe2, 0xb3, 0x3e,
  0x6d, 0x51, 0x6e, 0xbe, 0xd3, 0xdb, 0x54, 0xbe, 0x32, 0xc1, 0xfb, 0x3d,
  0x18, 0xd8, 0x0f, 0xbe, 0x4e, 0x02, 0x13, 0xbd, 0xd4, 0x61, 0x5b, 0xbd,
  0xae, 0x94, 0x26, 0x3d, 0xf9, 0xfe, 0xba, 0x3d, 0xf4, 0x4f, 0x4d, 0xbe,
  0x31, 0x05, 0x1b, 0xbe, 0x7d, 0x2c, 0xd7, 0x3d, 0x2e, 0x8d, 0x98, 0xbd,
  0x86, 0xef, 0x9a, 0xbe, 0x9d, 0x64, 0x1b, 0xbc, 0xd5, 0x07, 0x67, 0x3e,
  0x41, 0x41, 0x40, 0xbe, 0x49, 0xb4, 0x8d, 0xbe, 0x35, 0x55, 0xc7, 0xbd,
  0x0f, 0x60, 0xb4, 0x3e, 0xd0, 0x85, 0xd3, 0x3a, 0xad, 0x0c, 0xd4, 0xbe,
  0x1b, 0x23, 0xb2, 0xbe, 0xc3, 0xa9, 0x3e, 0xbf, 0xd2, 0x11, 0xe5, 0xbd,
  0x0b, 0xac, 0x84, 0xbe, 0x9c, 0xbb, 0x5f, 0xbd, 0xc7, 0x05, 0x3a, 0x3c,
  0xd7, 0x7d, 0xcb, 0xbe, 0x22, 0x12, 0xb2, 0xbe, 0x2f, 0x3d, 0x95, 0x3e,
  0xd0, 0x76, 0x83, 0xbf, 0x00, 0x0f, 0xd7, 0x3e, 0x40, 0xc0, 0xdb, 0xbe,
  0xc9, 0xe5, 0xbe, 0xbe, 0x24, 0x56, 0x82, 0xbf, 0xb7, 0x24, 0x30, 0xbe,
  0x20, 0xe0, 0x9b, 0xbe, 0x2f, 0x61, 0xc6, 0xbe, 0x45, 0x83, 0xe5, 0xbe,
  0xcb, 0x17, 0xc1, 0xbd, 0xe3, 0xb4, 0xea, 0xbd, 0x1c, 0x01, 0xbb, 0xbe,
  0x17, 0x89, 0x87, 0x3d, 0xa0, 0xe2, 0xba, 0x3d, 0x9b, 0x29, 0x76, 0xbe,
  0x1f, 0xaf, 0xa1, 0xbc, 0xd6, 0x36, 0x2c, 0xbf, 0x91, 0xe6, 0xba, 0x3e,
  0x21, 0x65, 0x6f, 0x3e, 0x52, 0xcf, 0x5a, 0xbe, 0xc3, 0x41, 0xea, 0xbc,
  0x01, 0x95, 0x11, 0xbe, 0xe6, 0x2d, 0x2b, 0x3d, 0xaa, 0x23, 0x7a, 0x3d,
  0x03, 0x67, 0x8d, 0xbd, 0x05, 0x35, 0x41, 0x3d, 0x1e, 0x0f, 0xaf, 0xbd,
  0x29, 0x65, 0xa4, 0xbe, 0xd3, 0xa8, 0x34, 0x3e, 0x54, 0xac, 0x2a, 0x3d,
  0xf1, 0xd6, 0xf9, 0xbd, 0x78, 0x20, 0xa8, 0xbd, 0x27, 0x93, 0x10, 0xbf,
  0x80, 0xb6, 0xe5, 0x3e, 0xb2, 0x80, 0xb7, 0xbe, 0xb6, 0x40, 0xba, 0x3e,
  0x55, 0xcf, 0xd2, 0xbe, 0x26, 0xbb, 0xa6, 0x3e, 0xc0, 0xcf, 0x43, 0x3e,
  0x48, 0x0c, 0x10, 0x3e, 0xa0, 0x55, 0x2f, 0xbd, 0xf7, 0x40, 0x1b, 0x3f,
  0x06, 0x6d, 0xb3, 0x3e, 0x3d, 0x0d, 0x1c, 0x3d, 0xff, 0xf6, 0x0e, 0x3f,
  0x9a, 0xe4, 0xc7, 0x3e, 0x3d, 0xc2, 0xa8, 0xbe, 0x4e, 0xbd, 0x2e, 0xbe,
  0x73, 0x33, 0xcc, 0xbe, 0xe2, 0x25, 0x5b, 0x3e, 0xe7, 0x30, 0x9e, 0xbe,
  0xba, 0xac, 0xbf, 0x3d, 0x86, 0x00, 0x2e, 0x3e, 0xd1, 0x85, 0x8b, 0x3e,
  0xb8, 0xae, 0xe4, 0xbc, 0x90, 0x06, 0x90, 0x3d, 0xf3, 0xf1, 0x88, 0x3e,
  0xda, 0x89, 0x52, 0x3e, 0xbb, 0xce, 0xf9, 0xba, 0xa7, 0xaa, 0x5e, 0xbe,
  0x78, 0xb9, 0xbc, 0x3e, 0xc9, 0x9f, 0xbd, 0x3d, 0x82, 0xbb, 0xaa, 0xbd,
  0x8e, 0x7c, 0xd5, 0x3c, 0xbf, 0x70, 0x01, 0xbf, 0x79, 0xac, 0x80, 0x3e,
  0x4e, 0x61, 0xb4, 0x3e, 0x3e, 0x5f, 0x21, 0xbe, 0x01, 0x04, 0xa6, 0x3e,
  0xf6, 0xc9, 0x5c, 0x3e, 0x29, 0xf5, 0x26, 0xbe, 0x66, 0x8e, 0x95, 0x3d,
  0x16, 0x2e, 0x11, 0x3f, 0x43, 0xe0, 0x83, 0x3e, 0x58, 0xeb, 0x0a, 0xbe,
  0x82, 0x4a, 0xbb, 0x3c, 0x3e, 0x13, 0x56, 0x3f, 0xb3, 0xf7, 0x7f, 0x3e,
  0xe1, 0x70, 0x2f, 0xbe, 0x2d, 0xaf, 0x8d, 0xbc, 0x2e, 0xd4, 0xf2, 0xbe,
  0x59, 0x1c, 0x57, 0x3e, 0x5b, 0xa7, 0x9c, 0x3e, 0x26, 0x27, 0xdd, 0x3e,
  0x8c, 0x56, 0x8d, 0xbd, 0xa7, 0xf3, 0x82, 0x3e, 0xd0, 0xc0, 0x7c, 0xbe,
  0xff, 0x40, 0x91, 0x3d, 0xe9, 0x60, 0x30, 0x3e, 0x3b, 0x21, 0xee, 0x3d,
  0x24, 0xfd, 0x41, 0xbe, 0xd0, 0x10, 0x44, 0xbe, 0x29, 0xd9, 0xa1, 0x3e,
  0x80, 0x0e, 0x02, 0x3e, 0x38, 0xed, 0x1e, 0xbe, 0x52, 0x2c, 0xac, 0xbb,
  0x22, 0x6e, 0x61, 0xbd, 0x1f, 0xe9, 0x87, 0x3e, 0x68, 0x60, 0xaf, 0x3e,
  0x7d, 0xbe, 0x11, 0x3e, 0xb0, 0xf8, 0xbf, 0xbd, 0x46, 0xd6, 0xcc, 0x3e,
  0x59, 0x12, 0x31, 0xbe, 0x68, 0x76, 0xbe, 0xbd, 0x1b, 0xab, 0xbb, 0x3e,
  0x1e, 0x09, 0xb5, 0x3e, 0xb3, 0xaf, 0x12, 0x3c, 0x68, 0xe9, 0x49, 0x3e,
  0x4c, 0xe8, 0xd4, 0x3e, 0xdf, 0x71, 0x39, 0x3e, 0x71, 0xaa, 0x0b, 0xbe,
  0x0f, 0x40, 0xca, 0x3c, 0xec, 0xf5, 0x3a, 0x3c, 0x37, 0xe7, 0xd2, 0x3e,
  0xbc, 0x08, 0x81, 0x3e, 0xaf, 0xa5, 0x06, 0x3c, 0xed, 0xf1, 0x31, 0xbf,
  0xb4, 0xb2, 0xe2, 0x3e, 0x2b, 0x6b, 0xf4, 0xbd, 0x45, 0xad, 0x2a, 0x3c,
  0x27, 0x18, 0x5e, 0x3e, 0x63, 0xea, 0xc7, 0x3e, 0xd0, 0x8d, 0xfc, 0xbd,
  0xac, 0x3c, 0x93, 0x3d, 0x0e, 0x62, 0x0e, 0x3f, 0xdb, 0xe4, 0xd9, 0x3d,
  0xcd, 0x6b, 0x32, 0xbc, 0xb6, 0xdf, 0x52, 0xbc, 0xa3, 0x12, 0x71, 0xbe,
  0x51, 0xe9, 0x1d, 0x3e, 0xff, 0x75, 0x08, 0x3e, 0x85, 0x75, 0xba, 0x3c,
  0xe0, 0xf6, 0xb7, 0xbe, 0x70, 0xb9, 0x5b, 0x3e, 0x2f, 0x06, 0x29, 0xbe,
  0x22, 0xce, 0x40, 0xbd, 0xba, 0xc9, 0xf5, 0x3d, 0x29, 0xc4, 0x8c, 0x3e,
  0xb8, 0xa1, 0x8b, 0xbc, 0xdd, 0xab, 0x48, 0xbe, 0xb4, 0x5b, 0x07, 0x3f,
  0xba, 0xc0, 0xd3, 0x3d, 0x3c, 0x8b, 0x84, 0xbd, 0xa1, 0xa9, 0x50, 0x3d,
  0xd6, 0x76, 0xeb, 0xbe, 0x50, 0x24, 0x8a, 0x3e, 0x20, 0xfa, 0xe9, 0x3c,
  0xc3, 0x23, 0x58, 0x3d, 0x05, 0x64, 0x04, 0xbf, 0xd6, 0xfa, 0x90, 0x3e,
  0xc9, 0x73, 0x30, 0xbe, 0x84, 0x37, 0x69, 0x3d, 0x76, 0xaf, 0xd2, 0x3c,
  0x0b, 0xef, 0x53, 0x3e, 0x66, 0xa5, 0x03, 0x3d, 0xb5, 0xbf, 0x30, 0xbe,
  0xb9, 0x89, 0xf7, 0x3e, 0x86, 0x6c, 0xdd, 0x3d, 0x00, 0xbb, 0x85, 0xbe,
  0xf8, 0x3b, 0x54, 0x3d, 0x21, 0x9d, 0x57, 0xbd, 0x24, 0x23, 0x4a, 0xbe,
  0x4e, 0x81, 0x45, 0x3e, 0x10, 0xc6, 0x9a, 0xbe, 0x47, 0xb5, 0x44, 0xbf,
  0xbb, 0x8a, 0x7f, 0x3e, 0x54, 0x24, 0x98, 0xbe, 0x5a, 0x00, 0xdd, 0xbd,
  0x89, 0x56, 0xc5, 0xbc, 0xcb, 0xc2, 0x60, 0x3e, 0x1e, 0xb9, 0x15, 0xbe,
  0xd5, 0x50, 0x8f, 0xbd, 0x7d, 0xc9, 0xc5, 0x3e, 0x99, 0xe8, 0x58, 0x3d,
  0x69, 0x17, 0x8d, 0xbd, 0x11, 0x0f, 0xf9, 0x3d, 0x8c, 0x77, 0xfd, 0xbe,
  0xec, 0x80, 0x67, 0x3c, 0x95, 0x0a, 0x90, 0xbd, 0x2f, 0x8e, 0xdc, 0x3c,
  0xdc, 0x30, 0xb7, 0xbe, 0xfa, 0xa7, 0x9f, 0x3d, 0xf0, 0x0d, 0x04, 0xbe,
  0x1f, 0x62, 0xf2, 0xbc, 0xd6, 0x26, 0xb3, 0x3d, 0x78, 0x07, 0x01, 0x3d,
  0xfe, 0xfc, 0xc6, 0xbe, 0xa3, 0x7a, 0x51, 0x3e, 0x6e, 0x54, 0x13, 0x3c,
  0xf3, 0x9f, 0x4e, 0x3d, 0x85, 0x9d, 0x0e, 0x3d, 0x64, 0x22, 0x5e, 0x3d,
  0x64, 0x52, 0x2d, 0xbf, 0x97, 0xcb, 0x64, 0x3e, 0x65, 0x81, 0xa6, 0x3d,
  0x6e, 0x30, 0xc4, 0x3d, 0xb1, 0xad, 0x61, 0xbf, 0x8f, 0xda, 0xa1, 0xbd,
  0x4c, 0xa5, 0xbd, 0xbd, 0x55, 0x37, 0xee, 0x3d, 0xc1, 0xb2, 0x52, 0x3c,
  0xf7, 0x9d, 0x8f, 0x3d, 0xb2, 0x2a, 0x64, 0x3e, 0x4c, 0x2f, 0x99, 0xbd,
  0x31, 0x88, 0x07, 0x3f, 0xdc, 0x1e, 0x0d, 0x3e, 0xee, 0x67, 0xae, 0x3c,
  0x29, 0x85, 0x60, 0x3d, 0x17, 0xb2, 0x1e, 0xbe, 0xa5, 0x39, 0x42, 0x3e,
  0xc8, 0x30, 0xc1, 0xbe, 0x0f, 0x34, 0x00, 0x3d, 0x7b, 0xbd, 0xea, 0x3d,
  0x4a, 0xb6, 0x76, 0x3d, 0x8a, 0xb5, 0xc5, 0xbd, 0x41, 0xbb, 0x18, 0x3d,
  0x04, 0x65, 0x9c, 0xbe, 0x52, 0x9d, 0x00, 0x3e, 0x36, 0xa3, 0x52, 0xbd,
  0xf0, 0x13, 0x1b, 0xbe, 0x47, 0x04, 0xaa, 0xbb, 0xf9, 0xfa, 0xdf, 0x3d,
  0xc9, 0xe9, 0xdd, 0xbe, 0x49, 0xcc, 0xe9, 0x3d, 0xc2, 0xe6, 0x8e, 0xbd,
  0x1d, 0x15, 0x4a, 0xbd, 0x14, 0x3e, 0x96, 0xbd, 0xcd, 0xcd, 0x1d, 0xbe,
  0x32, 0x9a, 0x77, 0xbe, 0x48, 0xfd, 0x26, 0x3e, 0x5b, 0x86, 0x4d, 0x3e,
  0x1f, 0xb4, 0x13, 0xbf, 0x4c, 0x8b, 0xa9, 0xbc, 0x1c, 0x0f, 0x21, 0x3d,
  0x8e, 0x8d, 0x04, 0xbf, 0xea, 0x4f, 0x8d, 0x3e, 0x0c, 0xf2, 0xe9, 0xbe,
  0x21, 0xa3, 0x70, 0xbc, 0x2c, 0x0f, 0xd5, 0xbe, 0xde, 0xda, 0xb8, 0x3b,
  0xec, 0xa0, 0xe3, 0xbd, 0xdc, 0x34, 0xa9, 0x3e, 0x77, 0x5f, 0xd9, 0x3e,
  0x2a, 0x94, 0x11, 0xbe, 0x23, 0x0f, 0xb9, 0xbe, 0x55, 0xcf, 0x41, 0x3d,
  0x08, 0x88, 0xdb, 0x3e, 0x6c, 0x8c, 0xed, 0xbe, 0x58, 0x41, 0xb3, 0x3d,
  0x4a, 0xb5, 0x42, 0xbe, 0x70, 0x13, 0x27, 0xbf, 0xd3, 0x1e, 0x40, 0x3e,
  0xec, 0x1d, 0x8f, 0xbe, 0xaf, 0x67, 0x45, 0xbe, 0x33, 0x34, 0xc1, 0xbd,
  0x4a, 0xe6, 0x2d, 0x3e, 0xda, 0x4f, 0xe2, 0x39, 0x98, 0x89, 0x97, 0x3e,
  0x43, 0x52, 0x15, 0x3e, 0x4a, 0x4b, 0xec, 0x3b, 0xf4, 0xb3, 0x46, 0xbe,
  0xb5, 0xff, 0xa7, 0x3d, 0x6a, 0x70, 0x1e, 0x3e, 0x49, 0xcc, 0x91, 0xbe,
  0x33, 0xd8, 0x8c, 0x3e, 0xaa, 0xf2, 0x87, 0xbd, 0x6f, 0x7c, 0x0c, 0xbf,
  0xce, 0xfa, 0x9b, 0x3c, 0x92, 0xbf, 0x83, 0xbe, 0x5b, 0x5d, 0xcf, 0xbd,
  0xe4, 0xbe, 0x17, 0xbe, 0xe2, 0x83, 0x3b, 0x3e, 0x3c, 0xde, 0xac, 0xbc,
  0xb0, 0x42, 0xcf, 0x3c, 0x57, 0xaf, 0xd8, 0x3c, 0x58, 0xaa, 0xe0, 0xbd,
  0xbc, 0x1b, 0xc5, 0x3d, 0xd3, 0x34, 0x07, 0x3e, 0x69, 0x6e, 0xd6, 0x3d,
  0x66, 0x35, 0x07, 0xbe, 0x8f, 0xcd, 0xce, 0x3e, 0xca, 0x92, 0x8a, 0x3d,
  0xe8, 0xc3, 0x60, 0xbe, 0x43, 0x63, 0xc5, 0x3e, 0xb2, 0xd4, 0xe2, 0xbe,
  0x1e, 0x68, 0xa2, 0x3e, 0x94, 0x97, 0x16, 0xbe, 0xa9, 0x90, 0x8e, 0x3e,
  0x29, 0x9a, 0x82, 0xbc, 0x98, 0x84, 0x56, 0x3e, 0x61, 0x79, 0x97, 0xbd,
  0x7b, 0x15, 0x0e, 0x3d, 0xd7, 0x11, 0x4e, 0xbd, 0xc4, 0xd9, 0x4b, 0xbd,
  0x2c, 0x59, 0x29, 0x3e, 0xe2, 0x15, 0x40, 0xbe, 0x31, 0x7d, 0x72, 0x3e,
  0xe7, 0x92, 0xad, 0xbc, 0xfc, 0xd2, 0x90, 0xbd, 0x78, 0x40, 0x4a, 0x3e,
  0x1e, 0xda, 0x2f, 0xbe, 0x18, 0xe9, 0xb3, 0x3d, 0xd7, 0x6f, 0xae, 0xbd,
  0x2c, 0x89, 0xa2, 0x3d, 0xbc, 0xb6, 0x0e, 0x3e, 0x1b, 0xe5, 0xc0, 0x3e,
  0x5e, 0x1c, 0xa2, 0x3e, 0xfc, 0xcb, 0xb5, 0x38, 0xed, 0xe4, 0x4a, 0xbe,
  0x74, 0x23, 0x45, 0x3e, 0x54, 0x92, 0x6b, 0xbe, 0xf0, 0xb6, 0x4f, 0xbe,
  0xa0, 0x71, 0x94, 0x3e, 0xa2, 0xbe, 0x01, 0x3e, 0x0e, 0xed, 0x6a, 0xbe,
  0xed, 0xec, 0xf9, 0x3e, 0xae, 0x89, 0x87, 0xbe, 0x9c, 0xcb, 0xb5, 0xbe,
  0x5b, 0xfc, 0x82, 0xbe, 0xb8, 0x4f, 0xa9, 0x3d, 0x1f, 0xd1, 0x04, 0xbd,
  0x9c, 0x67, 0x37, 0x3e, 0x72, 0x45, 0x1c, 0x3e, 0x10, 0xc0, 0x37, 0xbc,
  0x91, 0x93, 0x87, 0x3d, 0xfe, 0x5a, 0x35, 0x3e, 0xe5, 0xee, 0xca, 0xbd,
  0x32, 0xca, 0x2c, 0xbd, 0x34, 0x9e, 0xba, 0x3e, 0x89, 0x31, 0x6a, 0x3d,
  0x64, 0xae, 0xac, 0xbe, 0x72, 0x83, 0x6a, 0x3e, 0x4b, 0x3e, 0xd3, 0xbe,
  0x4b, 0xee, 0xc0, 0xbe, 0x1c, 0x86, 0x7e, 0x3d, 0x8d, 0x45, 0x8a, 0xbc,
  0x8a, 0xce, 0xf0, 0xbd, 0x81, 0x40, 0x91, 0x3e, 0xee, 0xb4, 0x4c, 0x3d,
  0x0f, 0x65, 0x91, 0x3d, 0xdc, 0x1f, 0x91, 0xbe, 0x23, 0xb9, 0xd9, 0x3e,
  0x26, 0x8a, 0xa1, 0xbd, 0x10, 0xaf, 0x17, 0xbe, 0x40, 0xec, 0xa3, 0x3e,
  0xe9, 0xd5, 0x96, 0x3e, 0x27, 0x32, 0xa1, 0xbe, 0x6f, 0xec, 0x9d, 0x3e,
  0x7d, 0x10, 0xc1, 0xbd, 0x71, 0xdf, 0x9a, 0x3c, 0x95, 0xe0, 0x92, 0xbc,
  0xfe, 0xca, 0xf1, 0xbd, 0x2b, 0x7c, 0xe8, 0xbd, 0xf3, 0xa5, 0x7e, 0x3e,
  0x9f, 0x06, 0x2f, 0x3c, 0x2e, 0x6b, 0xed, 0xbd, 0x18, 0x4c, 0x12, 0xbe,
  0xaa, 0xac, 0x41, 0x3e, 0x86, 0x75, 0x50, 0x3c, 0x7e, 0x2f, 0x6a, 0xbe,
  0x5c, 0x9e, 0x70, 0x3e, 0x37, 0x53, 0x66, 0x3e, 0xaa, 0x09, 0xc3, 0xbe,
  0xaf, 0xc3, 0xa5, 0x3e, 0x84, 0x4b, 0x00, 0xbe, 0x76, 0x9a, 0x15, 0x3e,
  0xa2, 0x6a, 0xcc, 0xbd, 0xe5, 0x0b, 0xf6, 0x3d, 0x3a, 0x9a, 0x62, 0x3d,
  0xdf, 0x01, 0x7a, 0x3e, 0xab, 0x4c, 0x56, 0x3e, 0x2d, 0xb4, 0x6f, 0xbd,
  0xf0, 0x39, 0x5e, 0xbd, 0xb2, 0x1f, 0x96, 0x3d, 0x66, 0x9d, 0xc5, 0xbd,
  0x94, 0x6f, 0xcd, 0xbd, 0xeb, 0x16, 0x00, 0x3f, 0x27, 0xec, 0x00, 0xbc,
  0x39, 0x4b, 0x22, 0xbe, 0xe9, 0x84, 0x8a, 0x3e, 0x64, 0x24, 0x5a, 0x3e,
  0x71, 0x6f, 0xa4, 0xbe, 0xb1, 0x98, 0x3f, 0xbd, 0x59, 0xb1, 0x3d, 0xbe,
  0x77, 0xc8, 0xc5, 0x3d, 0x42, 0x48, 0xe5, 0x3e, 0x49, 0x89, 0x10, 0x3e,
  0x4e, 0xe2, 0x6a, 0xbe, 0xe7, 0x99, 0xb8, 0x3c, 0xee, 0xc7, 0xd8, 0x3e,
  0x25, 0xd3, 0x04, 0xbe, 0x75, 0x2c, 0x3f, 0xbe, 0xd2, 0x4c, 0x39, 0xbe,
  0xd2, 0x1b, 0xe2, 0x3e, 0x20, 0x7b, 0xb5, 0xbe, 0x61, 0x20, 0x2a, 0x3e,
  0x86, 0xf3, 0x42, 0x3c, 0xea, 0xb7, 0xaf, 0xbc, 0x37, 0xf0, 0x91, 0xbb,
  0xc2, 0x19, 0x21, 0xbe, 0xea, 0x8b, 0x60, 0x3e, 0x3f, 0x55, 0xd0, 0x3d,
  0x62, 0x77, 0x64, 0x3e, 0x1f, 0x29, 0xe9, 0xbd, 0x55, 0xf9, 0x73, 0x3e,
  0xdf, 0x06, 0x8c, 0x3d, 0x61, 0xe4, 0x86, 0xbe, 0x44, 0xed, 0x26, 0xbe,
  0xbd, 0x7e, 0x8d, 0x3d, 0x57, 0x79, 0x40, 0x3e, 0x2c, 0x31, 0xed, 0xbd,
  0x88, 0x5b, 0xbd, 0x3c, 0x02, 0xcf, 0x72, 0xbe, 0x93, 0x44, 0x80, 0xbe,
  0x1c, 0xae, 0x25, 0xbe, 0x63, 0x36, 0x31, 0xbe, 0x38, 0x54, 0x6d, 0x3f,
  0x05, 0xea, 0x33, 0x3e, 0xaa, 0x39, 0x38, 0x3e, 0x8a, 0xa2, 0xa0, 0x3d,
  0x2a, 0x77, 0x29, 0x3e, 0xf9, 0x79, 0x87, 0x3c, 0x8c, 0xb5, 0x87, 0xbe,
  0x83, 0xa2, 0x24, 0xbe, 0xb3, 0xd3, 0x6d, 0xbe, 0x67, 0x43, 0xc8, 0x3e,
  0xd2, 0x6f, 0x9b, 0xbd, 0x29, 0x11, 0xe0, 0xbc, 0x00, 0x0f, 0x2c, 0xbe,
  0x73, 0x7d, 0x88, 0xbd, 0x04, 0xef, 0x30, 0xbd, 0xb3, 0x8b, 0x2d, 0xbf,
  0x50, 0x47, 0x34, 0x3f, 0xf7, 0xd0, 0x22, 0xbe, 0xac, 0x23, 0x19, 0x3e,
  0x75, 0xa4, 0x4a, 0xbe, 0xe6, 0x16, 0xc2, 0x3e, 0x45, 0xa6, 0x33, 0xbf,
  0x58, 0x39, 0xe9, 0xbe, 0x54, 0x69, 0x30, 0xbd, 0x5a, 0x53, 0x49, 0xbe,
  0x09, 0x3c, 0x28, 0xbd, 0xf8, 0xd6, 0x3b, 0xbd, 0xa6, 0x95, 0x7b, 0x3d,
  0xa4, 0xfb, 0x33, 0x3e, 0x6a, 0x2a, 0xf8, 0x3d, 0x27, 0x69, 0xb2, 0xbc,
  0x45, 0xfd, 0xa0, 0xbe, 0x4d, 0x4a, 0x0f, 0x3d, 0x0f, 0x9e, 0x93, 0xbe,
  0xa2, 0xdb, 0x34, 0xbe, 0xf6, 0x15, 0x64, 0xbe, 0x62, 0x4d, 0x04, 0x3e,
  0x8f, 0x7c, 0x48, 0x3d, 0x25, 0xec, 0x3c, 0xbd, 0x10, 0x48, 0xe7, 0x3e,
  0x92, 0x66, 0x12, 0xbe, 0x65, 0x40, 0x58, 0x3e, 0xb9, 0x04, 0xaa, 0x3e,
  0xa1, 0xcf, 0xb9, 0x3d, 0x2f, 0xf0, 0x15, 0x3f, 0x58, 0x5d, 0x13, 0xbe,
  0xc7, 0xb4, 0xe4, 0x3d, 0xcb, 0xdc, 0xb0, 0xbe, 0x2a, 0xc1, 0x8c, 0xbe,
  0x52, 0x49, 0x85, 0xbe, 0x45, 0x54, 0xab, 0xbd, 0x40, 0xbe, 0x17, 0x3e,
  0xe5, 0xb3, 0x07, 0x3f, 0xe1, 0x0e, 0x7c, 0xbe, 0x92, 0x84, 0x89, 0xbd,
  0xdb, 0x7a, 0xca, 0x3e, 0x8c, 0xdc, 0x9f, 0xbe, 0x09, 0x51, 0xdb, 0x3d,
  0x9c, 0x0e, 0xbb, 0x3e, 0x41, 0xd7, 0xa1, 0xbd, 0x72, 0x81, 0x23, 0x3f,
  0xdb, 0x80, 0x4b, 0x3e, 0x8c, 0x7e, 0x23, 0xbe, 0xd8, 0xb3, 0x82, 0xbd,
  0x4e, 0x61, 0x77, 0xbe, 0xd9, 0x90, 0xb7, 0xbe, 0xdf, 0x77, 0xaa, 0x3c,
  0x94, 0xe8, 0xc5, 0x3e, 0x60, 0x0b, 0xb4, 0x3d, 0xb2, 0xf3, 0x6c, 0xbe,
  0x90, 0xa1, 0xe9, 0xbd, 0xc0, 0x16, 0xee, 0x3d, 0xa8, 0xb3, 0xc3, 0x3d,
  0xd8, 0xef, 0xcc, 0xbe, 0x4d, 0xe7, 0xfe, 0xbd, 0xa8, 0x81, 0x28, 0xbd,
  0xd1, 0x98, 0xdc, 0x3e, 0x31, 0x5d, 0x18, 0x3e, 0x7e, 0x08, 0x42, 0x3e,
  0x85, 0xf7, 0x44, 0x3d, 0xc4, 0xbf, 0x1d, 0xbe, 0x43, 0xcc, 0xb9, 0xbe,
  0x1d, 0x69, 0xdd, 0x3d, 0xb9, 0x39, 0xc2, 0x3e, 0x1a, 0x92, 0x13, 0x3f,
  0x77, 0xaa, 0x87, 0xbc, 0x6a, 0x7a, 0x68, 0x3d, 0x35, 0xa2, 0x31, 0x3c,
  0x9f, 0xa9, 0x39, 0xbe, 0xf7, 0x4c, 0x9a, 0xbd, 0x63, 0x27, 0x87, 0x3e,
  0x06, 0x85, 0x3b, 0x3b, 0x69, 0x22, 0x16, 0x3e, 0x9f, 0xcd, 0x23, 0x3d,
  0x7f, 0x9a, 0x4f, 0x3e, 0x57, 0x4b, 0x95, 0xbe, 0x2d, 0xd0, 0xad, 0xbd,
  0x63, 0x21, 0xd3, 0xbd, 0xc0, 0x8f, 0x0e, 0x3f, 0xa0, 0x49, 0xb6, 0x3e,
  0xb6, 0xb3, 0x2f, 0xbd, 0x15, 0x72, 0x34, 0xbd, 0x3b, 0x41, 0x2d, 0x3d,
  0x59, 0xfb, 0xe6, 0x3e, 0xea, 0xed, 0xba, 0xbe, 0xcb, 0x90, 0x37, 0x3e,
  0x4a, 0xb8, 0x0b, 0x3e, 0xe4, 0xba, 0x02, 0xbe, 0x38, 0x4b, 0xa2, 0x3d,
  0x0a, 0xe5, 0xba, 0xbd, 0x08, 0x90, 0x03, 0x3e, 0xe1, 0x9b, 0xb2, 0xbe,
  0xc1, 0x54, 0x02, 0xbf, 0x9b, 0xcb, 0xeb, 0xbc, 0x4d, 0xff, 0xc5, 0xbd,
  0x92, 0xe1, 0x03, 0xbf, 0xb3, 0x8c, 0xba, 0xbe, 0x49, 0xa3, 0x59, 0xbe,
  0x2d, 0xb8, 0x1d, 0x3e, 0x3c, 0x6c, 0x83, 0x3e, 0x92, 0x72, 0x27, 0x3e,
  0x58, 0x88, 0xab, 0xbe, 0xfe, 0x06, 0xc9, 0x3e, 0x16, 0x6d, 0x59, 0xbe,
  0x3f, 0x71, 0x18, 0x3f, 0x94, 0xfb, 0x90, 0x3e, 0xa2, 0x86, 0xab, 0xbe,
  0xef, 0xc6, 0x00, 0xbf, 0x43, 0x9c, 0xf1, 0xbe, 0xb4, 0xab, 0x0e, 0xbe,
  0x25, 0x52, 0x01, 0xbf, 0x69, 0x6b, 0x81, 0xbc, 0x51, 0xe3, 0xe1, 0xbe,
  0x7a, 0xa8, 0x23, 0x3e, 0xbb, 0xa2, 0x1a, 0xbd, 0x02, 0x14, 0xee, 0x3d,
  0x10, 0x2a, 0x6d, 0x3e, 0x9a, 0x80, 0x28, 0xbe, 0xe2, 0x37, 0xd4, 0x3e,
  0x79, 0x88, 0xb9, 0xbd, 0x6c, 0xc0, 0xd2, 0x3d, 0xd4, 0x30, 0x28, 0x3e,
  0xb9, 0x67, 0x1c, 0xbf, 0x94, 0xbd, 0x1a, 0xbf, 0x4e, 0x5a, 0x9d, 0xbe,
  0x63, 0x4f, 0x0b, 0xbf, 0x27, 0x8f, 0x61, 0xbd, 0x99, 0x4b, 0xe9, 0x3e,
  0xd3, 0x89, 0x83, 0xbe, 0xcc, 0x49, 0x0e, 0xbf, 0x0f, 0x4e, 0x76, 0xbd,
  0xdd, 0x70, 0x2d, 0xbf, 0xcf, 0xc3, 0xea, 0xbd, 0xe4, 0xbf, 0x6b, 0xbe,
  0x98, 0x5a, 0x4b, 0xbf, 0xff, 0x2b, 0xde, 0x3d, 0xe2, 0x4b, 0xc3, 0xbd,
  0xf8, 0x52, 0xd2, 0xbd, 0x0e, 0x6b, 0x28, 0xbf, 0x0d, 0x44, 0xea, 0xbe,
  0xc6, 0x30, 0x5f, 0xbe, 0xd7, 0x03, 0xc6, 0xbe, 0x42, 0xac, 0x92, 0xbe,
  0x6d, 0x6f, 0x3f, 0xbe, 0x3d, 0x77, 0x09, 0xbe, 0xdb, 0x04, 0x59, 0xbe,
  0x44, 0x5f, 0x3e, 0xbd, 0x8f, 0xc3, 0x38, 0xbe, 0x0d, 0xec, 0xc3, 0xbe,
  0xdb, 0x2a, 0x17, 0xbe, 0x17, 0x70, 0xce, 0xbe, 0x60, 0x6e, 0xc6, 0x3d,
  0x80, 0xd8, 0x5e, 0xbf, 0x38, 0x17, 0xcb, 0x3e, 0x3c, 0x99, 0x41, 0xbe,
  0x5b, 0xfe, 0x98, 0xbe, 0x13, 0x4e, 0x18, 0x3d, 0xbb, 0x2d, 0xe5, 0xbd,
  0x60, 0x7e, 0x8a, 0x3d, 0x02, 0xcb, 0xd9, 0xbd, 0xd2, 0x18, 0x5c, 0xbc,
  0x26, 0xa5, 0x7f, 0xbe, 0x2c, 0x4a, 0xa7, 0x3d, 0xc2, 0xa3, 0xe9, 0x3c,
  0xaf, 0x44, 0xa9, 0xbe, 0x92, 0x8d, 0xa1, 0xbe, 0x53, 0xb4, 0x07, 0xbe,
  0x68, 0x37, 0x80, 0x3e, 0x93, 0x1d, 0xde, 0xbe, 0x1c, 0x97, 0x3f, 0x3d,
  0x52, 0xcc, 0xd7, 0xbd, 0x3e, 0x46, 0x12, 0xbf, 0x1e, 0x43, 0xa2, 0xbe,
  0xac, 0x1e, 0x94, 0x3d, 0x9c, 0xcc, 0xa3, 0xbd, 0x83, 0x6a, 0x8c, 0x3c,
  0x05, 0x4f, 0xdf, 0xbe, 0x9c, 0xd6, 0xa3, 0xbe, 0x02, 0xd2, 0x94, 0xbd,
  0x30, 0xd9, 0x8e, 0xbd, 0x1f, 0xa0, 0x4e, 0xbe, 0x5d, 0xbe, 0xac, 0x3e,
  0xbb, 0x87, 0xad, 0xbe, 0x75, 0xd6, 0x45, 0x3c, 0xab, 0xfc, 0xd3, 0x3d,
  0x89, 0x14, 0xb2, 0x3c, 0x76, 0xa3, 0x22, 0x3e, 0x52, 0xff, 0x08, 0xbe,
  0xf0, 0x37, 0x89, 0x3e, 0x4f, 0xaf, 0x18, 0xbd, 0xb4, 0x24, 0x1f, 0xbe,
  0x50, 0xd6, 0x55, 0x3e, 0x0c, 0xdf, 0xa9, 0xbe, 0x3d, 0x7f, 0x52, 0xbe,
  0x1d, 0xfc, 0x6c, 0xbe, 0xef, 0x9c, 0x4b, 0x3e, 0x0d, 0xb5, 0xd6, 0xbc,
  0x24, 0x26, 0x91, 0xbc, 0x56, 0x8b, 0x0f, 0xbd, 0x73, 0xe6, 0xd3, 0xbe,
  0x45, 0x33, 0xb0, 0x3e, 0xb7, 0x41, 0x38, 0xbe, 0x62, 0x20, 0xa7, 0x3e,
  0x46, 0x3f, 0xb7, 0x3d, 0x93, 0x02, 0x00, 0x3e, 0xed, 0x7f, 0xad, 0xbe,
  0x00, 0xad, 0xc5, 0x3e, 0x59, 0x43, 0x88, 0x3e, 0xd5, 0x99, 0x4a, 0x3f,
  0xc5, 0xdb, 0x74, 0xbe, 0x0b, 0x11, 0x10, 0xbe, 0xa0, 0xf7, 0x49, 0xbd,
  0x29, 0x99, 0x2c, 0xbd, 0x22, 0x1b, 0x7b, 0xbe, 0x41, 0x5e, 0x1e, 0x3d,
  0x77, 0x8a, 0x7b, 0x3d, 0x72, 0xd2, 0x95, 0xbf, 0x62, 0x83, 0x28, 0xbd,
  0xfd, 0x0f, 0x13, 0x3e, 0xd7, 0xdf, 0x2e, 0x3e, 0xa3, 0x2a, 0x78, 0x3d,
  0xf3, 0x0f, 0x20, 0xbe, 0x5d, 0x88, 0x39, 0x3e, 0xe5, 0x0f, 0xb6, 0x3e,
  0xba, 0xee, 0x3c, 0xbe, 0xee, 0xdf, 0x1a, 0x3c, 0xb1, 0x9d, 0xc5, 0xbd,
  0x24, 0xc1, 0x82, 0xbb, 0x1b, 0x62, 0x58, 0xbd, 0x2f, 0x85, 0x1d, 0xbb,
  0xd4, 0xd6, 0xb2, 0x3e, 0xea, 0x65, 0x85, 0x3d, 0x4b, 0x11, 0x33, 0xbc,
  0xbf, 0x71, 0x62, 0x3d, 0x31, 0xa6, 0x15, 0xbf, 0xaa, 0x7f, 0xd3, 0x3e,
  0xbe, 0x39, 0x0c, 0x3c, 0x34, 0xb0, 0xdc, 0xbe, 0x15, 0x13, 0x19, 0xbf,
  0x98, 0x9f, 0xef, 0xbe, 0x54, 0x75, 0x93, 0xbe, 0x15, 0x75, 0x87, 0xbe,
  0x24, 0xa1, 0xb3, 0xbd, 0xd7, 0xd5, 0x30, 0xbf, 0x61, 0x1b, 0xde, 0xbd,
  0x68, 0x52, 0x5a, 0xbc, 0xc2, 0xdf, 0xd6, 0xbe, 0xd8, 0xb3, 0xbb, 0xbd,
  0x1f, 0x26, 0x3c, 0xbf, 0x11, 0x01, 0x46, 0x3e, 0x2d, 0x25, 0xa2, 0xbe,
  0x60, 0x6c, 0x51, 0xbc, 0xb1, 0x56, 0xc2, 0x3d, 0x4b, 0x44, 0xc1, 0xbe,
  0xf2, 0x47, 0x02, 0xbf, 0x6f, 0xc3, 0x1a, 0xbf, 0x72, 0x56, 0x93, 0x3d,
  0x6e, 0xca, 0xc3, 0xbe, 0xc9, 0x15, 0xb6, 0x3d, 0xcc, 0x47, 0x5c, 0xbe,
  0x2c, 0x41, 0xe7, 0xbd, 0xb4, 0x49, 0x25, 0x3e, 0x78, 0xf1, 0xcf, 0xbe,
  0xb9, 0x40, 0x3e, 0x3d, 0xdf, 0x08, 0x64, 0xbf, 0xf5, 0x47, 0x95, 0x3e,
  0x6c, 0xb7, 0xb9, 0xbd, 0x6f, 0x4d, 0x8b, 0xbe, 0xf4, 0x24, 0x36, 0xbd,
  0x71, 0x97, 0x7b, 0xbd, 0xa0, 0x76, 0x3f, 0xbf, 0x23, 0x09, 0x95, 0xbe,
  0xe1, 0x60, 0x84, 0x3e, 0xd5, 0x72, 0x2b, 0xbe, 0xd9, 0xa0, 0x12, 0xbd,
  0x40, 0x1d, 0xeb, 0xbe, 0x3b, 0x7e, 0x69, 0xbe, 0x2a, 0x8c, 0x13, 0x3e,
  0x09, 0x34, 0xc8, 0xbe, 0xd6, 0xbd, 0xc8, 0x3d, 0x56, 0xba, 0x90, 0xbf,
  0x81, 0x01, 0x72, 0x3d, 0xe9, 0x17, 0x03, 0xbe, 0x66, 0xc5, 0x78, 0xbe,
  0xf0, 0x43, 0x03, 0x3d, 0xb5, 0x45, 0x31, 0xbd, 0xbf, 0x45, 0x8e, 0xbe,
  0x22, 0x72, 0x21, 0xbd, 0x32, 0xf4, 0x55, 0x3d, 0xe3, 0xae, 0xe5, 0xbd,
  0x77, 0xb2, 0xe7, 0xbd, 0x9e, 0xf3, 0x12, 0xbe, 0x37, 0xd4, 0x1d, 0x3d,
  0x48, 0xbe, 0x97, 0x3c, 0x5a, 0x63, 0xb2, 0xbe, 0xbe, 0x05, 0x2f, 0xbd,
  0x68, 0xa5, 0x99, 0xbf, 0x58, 0x7e, 0x3c, 0xbe, 0x47, 0x15, 0xce, 0xbc,
  0x23, 0x62, 0x1c, 0xbe, 0x75, 0xf6, 0x82, 0xbd, 0x61, 0x73, 0x2e, 0x3d,
  0x6f, 0xee, 0xe2, 0xbd, 0x97, 0x4e, 0xda, 0xbe, 0xf9, 0x49, 0x27, 0x3d,
  0x2d, 0x84, 0xd3, 0x3c, 0x11, 0x9a, 0xcc, 0xbd, 0x32, 0xe3, 0xdf, 0xbc,
  0x82, 0x52, 0x26, 0x3d, 0x65, 0xe1, 0x66, 0x3e, 0x1c, 0x08, 0x20, 0xbe,
  0x15, 0xd8, 0x67, 0x3e, 0x61, 0x19, 0x68, 0xbf, 0xd7, 0x52, 0x3a, 0xbe,
  0xf5, 0x39, 0x8b, 0xbe, 0x66, 0x8b, 0x05, 0xbf, 0x45, 0x20, 0x9e, 0x3c,
  0xad, 0x86, 0x86, 0x3e, 0xae, 0x68, 0x00, 0xba, 0x63, 0x70, 0xa5, 0xbd,
  0x2f, 0xe8, 0x86, 0x3e, 0x72, 0x0c, 0x96, 0xbe, 0x09, 0xa0, 0x9c, 0xbd,
  0xdf, 0xd6, 0x16, 0xbe, 0x25, 0x97, 0xeb, 0xbd, 0x36, 0xc6, 0xe6, 0x3e,
  0x89, 0xec, 0x28, 0x3e, 0x75, 0x9c, 0xb3, 0x3d, 0x3d, 0x22, 0x6f, 0xbe,
  0xe5, 0x68, 0x96, 0xbc, 0xa0, 0xaf, 0xc3, 0x3e, 0x25, 0xc6, 0x8e, 0xbe,
  0xd3, 0x7a, 0x0b, 0x3c, 0xae, 0xb8, 0x55, 0xbb, 0x2b, 0xd7, 0x53, 0x3d,
  0x49, 0x62, 0x10, 0x3e, 0xb2, 0xff, 0x9b, 0xbd, 0xdd, 0xa7, 0xf5, 0x3d,
  0x5f, 0x3c, 0xb2, 0xbd, 0xb3, 0x85, 0xf4, 0x3e, 0x47, 0x42, 0x16, 0xbe,
  0x60, 0xd2, 0x5f, 0x3e, 0xf6, 0x07, 0x61, 0x3e, 0xef, 0xee, 0xf4, 0x3c,
  0x00, 0x91, 0xdd, 0x3e, 0x52, 0xa5, 0x28, 0x3e, 0x69, 0xf4, 0x17, 0xbd,
  0xad, 0x7e, 0x4e, 0xbe, 0x77, 0x2f, 0x8e, 0x3c, 0xf0, 0x75, 0xc6, 0x3d,
  0x0a, 0xb1, 0xaa, 0xbe, 0xfd, 0xe2, 0x6a, 0x3c, 0x42, 0xd3, 0xdd, 0x3d,
  0xf0, 0xea, 0xa6, 0x3e, 0x31, 0xc9, 0x75, 0xbe, 0x83, 0x1b, 0x63, 0x3e,
  0xf8, 0x8e, 0x7e, 0xbe, 0x3f, 0x36, 0xd3, 0x3e, 0xa2, 0x76, 0x1c, 0x3e,
  0xce, 0x34, 0x45, 0x3e, 0xfc, 0xb3, 0xb9, 0x3d, 0x75, 0x4c, 0x78, 0x3e,
  0x15, 0x52, 0x2b, 0x3e, 0x94, 0x54, 0x0f, 0xbe, 0x79, 0xd9, 0x2e, 0xbe,
  0x60, 0xa7, 0xc1, 0x3d, 0x54, 0x0e, 0x78, 0x3d, 0xf1, 0x05, 0xb3, 0x3e,
  0xb6, 0x55, 0x95, 0xbc, 0x68, 0x73, 0x22, 0xbe, 0x76, 0x7e, 0x91, 0xbd,
  0x46, 0xa8, 0x2a, 0x3c, 0xa7, 0xb1, 0x58, 0xbd, 0xad, 0x3d, 0xaf, 0x3e,
  0xea, 0x64, 0xba, 0x3e, 0x93, 0x59, 0xeb, 0x3b, 0x5b, 0xbe, 0x2d, 0x3f,
  0xbe, 0x40, 0x52, 0x3d, 0x8b, 0xb4, 0x43, 0x3e, 0xd5, 0x86, 0xc7, 0xbc,
  0x6f, 0xab, 0x21, 0x3e, 0xc7, 0x96, 0x41, 0xbd, 0x14, 0x5d, 0x67, 0xbc,
  0x2e, 0x49, 0xef, 0x3e, 0x97, 0x2a, 0xa0, 0x3d, 0xd9, 0xa6, 0xae, 0xbe,
  0xe1, 0xc5, 0xa8, 0xbc, 0x8b, 0xb0, 0x49, 0x3e, 0x0d, 0x56, 0xda, 0xbd,
  0xd5, 0xae, 0x44, 0xbd, 0xfb, 0xf6, 0x45, 0x3e, 0xbf, 0xc4, 0x87, 0xbe,
  0xa8, 0xdc, 0x0a, 0x3f, 0x79, 0xba, 0x4c, 0x3d, 0x5f, 0x55, 0x23, 0x3e,
  0x76, 0x50, 0xe5, 0xbd, 0x79, 0x86, 0x86, 0x3d, 0x1e, 0x8a, 0x4c, 0xbd,
  0x5e, 0xe1, 0x57, 0xbd, 0x8d, 0xdc, 0xcd, 0x3e, 0x14, 0xcc, 0x62, 0x3e,
  0x6c, 0x6d, 0xb1, 0x3d, 0x5d, 0xda, 0xe5, 0x3d, 0x89, 0x8b, 0xf2, 0x3d,
  0x79, 0xa4, 0x66, 0xbc, 0xd3, 0xb8, 0x64, 0xbd, 0x4c, 0xea, 0x9b, 0x3e,
  0x2b, 0x62, 0xa6, 0xbe, 0x22, 0x7a, 0x1a, 0x3f, 0xfd, 0xb6, 0xac, 0xbb,
  0x44, 0xfd, 0x74, 0x3d, 0xa5, 0x3d, 0x0a, 0x3e, 0x20, 0x4c, 0x85, 0xbe,
  0xdf, 0xc4, 0x81, 0x3c, 0x9d, 0xca, 0xb2, 0x3d, 0xa0, 0x3c, 0xb0, 0x3e,
  0x90, 0x8f, 0x1d, 0x3f, 0x86, 0xa1, 0x88, 0xbe, 0x89, 0x0a, 0x02, 0x3b,
  0x53, 0x51, 0xb0, 0x3e, 0x3e, 0x97, 0x81, 0xbd, 0x0f, 0x6e, 0x99, 0xbd,
  0x2f, 0xc6, 0xfe, 0x3e, 0xd8, 0xcc, 0x84, 0xbe, 0xcd, 0x92, 0xe1, 0x3e,
  0xcf, 0x1f, 0xe3, 0xba, 0x7e, 0x8a, 0x62, 0x3e, 0xfb, 0xe0, 0x40, 0xbd,
  0xbc, 0xce, 0xba, 0xbf, 0x30, 0x1e, 0xae, 0xbd, 0xb2, 0x49, 0xa9, 0x3d,
  0xd5, 0xd3, 0xef, 0x3e, 0x6c, 0x5c, 0xdb, 0x3c, 0x0d, 0xf4, 0xda, 0xbe,
  0x6d, 0x7b, 0xa7, 0xbb, 0x0c, 0x13, 0xe4, 0x3e, 0xef, 0x80, 0xcc, 0x3d,
  0x54, 0x92, 0x36, 0xbf, 0xf8, 0x09, 0xa6, 0x3e, 0x0f, 0x04, 0xa4, 0xbd,
  0x2b, 0xee, 0x13, 0x3f, 0x09, 0xcb, 0x4a, 0xbe, 0xb9, 0xa5, 0x94, 0x3d,
  0x87, 0x20, 0x05, 0xbd, 0x3f, 0xf2, 0xf4, 0xbf, 0x6b, 0x69, 0xd7, 0x3c,
  0xa7, 0xea, 0x3b, 0x3e, 0x92, 0x4b, 0x2f, 0x3f, 0xf2, 0xf9, 0xc2, 0xbe,
  0x31, 0x56, 0x69, 0xbd, 0xe8, 0xd7, 0x97, 0x3d, 0xcc, 0xe7, 0xa9, 0x3d,
  0x46, 0x67, 0x27, 0xbe, 0x3d, 0x4d, 0xbf, 0xbe, 0xbf, 0x8d, 0xea, 0x3d,
  0x87, 0x66, 0xcc, 0xbe, 0x9a, 0xd9, 0x38, 0xbe, 0x5f, 0x86, 0x2f, 0xbe,
  0x0a, 0x33, 0x72, 0xbc, 0x13, 0x5b, 0x34, 0x3e, 0xad, 0x68, 0x22, 0xbf,
  0x37, 0xd5, 0xb9, 0x3e, 0x79, 0x66, 0xcb, 0xbe, 0xde, 0xe2, 0xf4, 0xbc,
  0x15, 0xd9, 0x19, 0xbf, 0x1f, 0xf5, 0x11, 0x3c, 0xf6, 0x2f, 0x9e, 0xbe,
  0xa0, 0x6b, 0x19, 0xbd, 0x60, 0x23, 0x5e, 0xbd, 0xd1, 0x58, 0x56, 0xbe,
  0x4d, 0xe8, 0xe3, 0xbd, 0xfc, 0xde, 0xa4, 0xbe, 0x60, 0xda, 0x56, 0x3e,
  0xa5, 0x27, 0xa5, 0x3e, 0xe6, 0x0e, 0x01, 0x3c, 0x0b, 0xb9, 0xfa, 0x3d,
  0xcd, 0x6d, 0xf9, 0xbd, 0x92, 0xa2, 0x0d, 0x3f, 0xa0, 0x4f, 0x85, 0x3d,
  0xb5, 0xbc, 0x19, 0xbd, 0xcd, 0x1a, 0xbe, 0xbe, 0xcc, 0x53, 0x51, 0x3e,
  0xee, 0x9a, 0x40, 0xbe, 0x92, 0xe1, 0x72, 0x3e, 0x48, 0xdb, 0xa1, 0x3d,
  0x5f, 0x2a, 0x0d, 0x3f, 0xe3, 0x2b, 0x38, 0xbe, 0x0d, 0xb9, 0xd1, 0xbe,
  0xa8, 0x17, 0x4c, 0xbd, 0x15, 0x17, 0x1c, 0x3e, 0xee, 0xa1, 0x02, 0xbe,
  0x35, 0xad, 0xfa, 0x3d, 0x8d, 0x43, 0x03, 0xbf, 0x1f, 0x1e, 0xb6, 0x3e,
  0x57, 0xf9, 0x82, 0xbe, 0x4b, 0x5e, 0x2e, 0x3e, 0xf8, 0x14, 0xda, 0xbe,
  0xde, 0xd1, 0xc1, 0x3d, 0xfa, 0xe3, 0xb6, 0xbe, 0xea, 0x7d, 0xa2, 0x3d,
  0x12, 0x30, 0x58, 0xbd, 0x0e, 0xd8, 0x5f, 0x3e, 0x5f, 0xb5, 0x90, 0xbd,
  0xc9, 0x72, 0x14, 0xbf, 0xea, 0xd0, 0x48, 0xbe, 0x04, 0x28, 0xac, 0x3d,
  0x9d, 0xac, 0x0f, 0xbc, 0x12, 0x48, 0x51, 0x3e, 0x64, 0xe8, 0xea, 0xbe,
  0x72, 0x4f, 0xff, 0x3e, 0xc2, 0x1e, 0xd2, 0xbd, 0x7b, 0x05, 0xe6, 0x3d,
  0x1f, 0xc8, 0xaa, 0x3d, 0x11, 0x35, 0x0e, 0x3d, 0x79, 0xb4, 0xd4, 0xbe,
  0xc9, 0xbe, 0xbe, 0x3d, 0xea, 0xaf, 0xa9, 0x3e, 0x6b, 0x24, 0x98, 0x3d,
  0xed, 0xcc, 0x60, 0xbe, 0x37, 0x86, 0xf6, 0xbe, 0xa4, 0x4a, 0xb8, 0x3e,
  0x20, 0x9e, 0x8b, 0x3e, 0x38, 0xcc, 0x20, 0xbe, 0x56, 0x40, 0xa3, 0x3d,
  0xd2, 0x1f, 0x39, 0xbe, 0x93, 0x4f, 0x2f, 0x3e, 0x28, 0xa1, 0x82, 0x3d,
  0x7d, 0x59, 0x83, 0x3e, 0x91, 0xb7, 0x8e, 0x3e, 0x15, 0x14, 0x95, 0x3d,
  0xcb, 0x6a, 0xe7, 0xbe, 0x84, 0x11, 0x52, 0x3e, 0x99, 0xda, 0xa7, 0x3e,
  0xef, 0x86, 0x41, 0x3d, 0x40, 0xb7, 0xd3, 0xbd, 0x5f, 0xd3, 0x06, 0xbf,
  0xd3, 0x64, 0xd6, 0x3e, 0xd0, 0x35, 0xe3, 0x3e, 0x63, 0x50, 0xce, 0x3c,
  0x5c, 0x7a, 0xf6, 0x3b, 0xcc, 0x30, 0x01, 0xbd, 0x9b, 0x90, 0x19, 0x3d,
  0x78, 0xdc, 0xff, 0x3e, 0x0c, 0x8a, 0x1d, 0x3f, 0x09, 0x1c, 0x86, 0xbd,
  0x10, 0x94, 0x31, 0x3e, 0x28, 0xb3, 0xe5, 0xbe, 0xc9, 0xde, 0x77, 0x3d,
  0x1d, 0x54, 0x35, 0x3e, 0x05, 0x61, 0xb8, 0x3d, 0xc4, 0x72, 0x56, 0xbe,
  0x8a, 0xac, 0x4c, 0x3e, 0xe6, 0xdc, 0xd5, 0x3e, 0x80, 0x2b, 0x85, 0xba,
  0x52, 0xca, 0xbb, 0x3d, 0x11, 0xde, 0x26, 0x3d, 0x67, 0xc6, 0xcd, 0xbe,
  0x29, 0xe1, 0x96, 0x3e, 0x12, 0xe9, 0x69, 0x3e, 0xec, 0x24, 0xb7, 0x3e,
  0xba, 0x47, 0xa8, 0xbe, 0x74, 0x8c, 0x86, 0x3e, 0xa6, 0x51, 0x12, 0xbe,
  0xaf, 0x02, 0x19, 0x3d, 0x6f, 0x93, 0x55, 0x3e, 0xf0, 0xb2, 0x9d, 0x3e,
  0x45, 0xd7, 0x61, 0xbe, 0x12, 0xfe, 0x54, 0xbe, 0x5f, 0x11, 0xe1, 0x3e,
  0x7c, 0x8d, 0x58, 0x3e, 0x86, 0xd5, 0x39, 0xbe, 0x4a, 0x7e, 0x10, 0xbd,
  0x37, 0x45, 0x56, 0xbe, 0xbc, 0xfd, 0x1a, 0x3e, 0x5a, 0xcc, 0x0d, 0x3e,
  0xdb, 0x66, 0x03, 0x3f, 0x98, 0x12, 0x09, 0xbf, 0x43, 0x3c, 0xac, 0x3e,
  0x91, 0x21, 0x08, 0xbd, 0x84, 0x66, 0xac, 0xbd, 0x2b, 0x5a, 0xdb, 0x3d,
  0x4c, 0x79, 0x85, 0x3e, 0x75, 0xcb, 0xbb, 0xbe, 0x14, 0x85, 0xbb, 0x3b,
  0x97, 0xd5, 0x5a, 0x3d, 0xe8, 0x18, 0x91, 0x3e, 0x8b, 0x53, 0xf7, 0x3c,
  0x4a, 0xbd, 0xde, 0xbd, 0x62, 0x0a, 0x0e, 0xbd, 0xf0, 0x03, 0x8e, 0x3e,
  0xba, 0xf8, 0x56, 0xbe, 0xb3, 0x09, 0x12, 0x3e, 0xbe, 0x95, 0x03, 0xbf,
  0xce, 0x6f, 0x0d, 0x3f, 0xa4, 0x40, 0xe8, 0xbe, 0xad, 0x90, 0x46, 0x3e,
  0x19, 0x26, 0x72, 0x3c, 0xee, 0xe9, 0xc0, 0x3e, 0xc7, 0x86, 0x06, 0x3e,
  0x9e, 0x11, 0xd9, 0xbd, 0xc7, 0x4f, 0x8d, 0x3e, 0x2a, 0x42, 0x00, 0x3e,
  0xc5, 0x5d, 0x53, 0x3d, 0x62, 0x10, 0x12, 0xbd, 0x7b, 0x12, 0x19, 0xbe,
  0xf6, 0x95, 0x30, 0x3e, 0xe5, 0xce, 0xc7, 0xbe, 0x3b, 0x87, 0x29, 0x3e,
  0xd1, 0xcd, 0x4a, 0xbe, 0x55, 0x8b, 0xd7, 0x3e, 0x9d, 0x89, 0xa8, 0xbd,
  0x88, 0xd3, 0xb7, 0x3d, 0x78, 0x2d, 0xf6, 0xbd, 0xa5, 0x06, 0x88, 0x3e,
  0x62, 0x6d, 0xd4, 0xbd, 0x99, 0x01, 0xa7, 0xbe, 0x7f, 0x42, 0x12, 0x3e,
  0x43, 0x04, 0x04, 0x3d, 0xcd, 0x6c, 0x4d, 0x3e, 0xe8, 0x37, 0x94, 0xbd,
  0xdc, 0x1d, 0xec, 0xbe, 0x43, 0x94, 0xae, 0x3d, 0x94, 0xde, 0x6b, 0x3e,
  0x66, 0xa0, 0x06, 0x3d, 0xbc, 0x84, 0x42, 0xbd, 0xcc, 0x6f, 0xfb, 0x3d,
  0xa8, 0x6c, 0x83, 0xbe, 0x9f, 0x2f, 0x1d, 0xbc, 0x85, 0x6f, 0xa9, 0x3d,
  0xe5, 0xe1, 0xc0, 0x3e, 0x4f, 0xbc, 0x11, 0xbe, 0x41, 0xe2, 0x9e, 0xbd,
  0x38, 0x11, 0xdb, 0xbd, 0x4c, 0x84, 0xbc, 0x3b, 0x60, 0x6b, 0x75, 0x3d,
  0xb7, 0x03, 0xd1, 0xbd, 0xd3, 0x9c, 0x68, 0x3d, 0x34, 0x4d, 0x85, 0x3e,
  0x42, 0x14, 0xac, 0xbe, 0xa3, 0x61, 0x95, 0x3d, 0xe6, 0x14, 0x94, 0xbe,
  0x28, 0x00, 0xa0, 0x3d, 0xb7, 0xe7, 0x20, 0xbf, 0xeb, 0x9d, 0xdd, 0x3d,
  0x8d, 0xd6, 0x8d, 0x3e, 0x9a, 0x4f, 0xca, 0x3e, 0x47, 0xd7, 0x24, 0x3e,
  0xd5, 0x19, 0x41, 0xbd, 0x29, 0xf8, 0x19, 0x3f, 0xe5, 0xf0, 0x5b, 0x3d,
  0x78, 0x6e, 0xed, 0xbc, 0x28, 0x57, 0xce, 0xbd, 0xaa, 0x3f, 0x34, 0xbe,
  0xf4, 0x16, 0x83, 0xbe, 0x14, 0x86, 0xc1, 0x3d, 0xce, 0x02, 0xfd, 0x3d,
  0x13, 0xb7, 0x1b, 0xbf, 0x4b, 0x6a, 0x91, 0x3d, 0xf6, 0x63, 0xf7, 0xbe,
  0xd2, 0xdb, 0x54, 0x3e, 0x6c, 0x2e, 0xd7, 0x3e, 0xd7, 0x99, 0xc2, 0x3e,
  0x74, 0xeb, 0xd4, 0xbc, 0xb7, 0x73, 0xad, 0xbe, 0x70, 0x87, 0x51, 0x3e,
  0x02, 0x69, 0x11, 0x3f, 0x7e, 0x03, 0x3f, 0x3c, 0xbc, 0x8e, 0x05, 0xbe,
  0x72, 0xed, 0xf6, 0xbd, 0x2d, 0x6b, 0xd4, 0xbe, 0xd8, 0x7d, 0x28, 0x3d,
  0x23, 0x78, 0x75, 0xbd, 0x16, 0x87, 0xa9, 0x3e, 0x71, 0x60, 0x70, 0xbe,
  0x0a, 0x19, 0x26, 0xbf, 0x9d, 0x26, 0x4b, 0xbc, 0x17, 0xda, 0x79, 0x3e,
  0x33, 0xb5, 0x87, 0x3d, 0xf1, 0x7b, 0x26, 0xbd, 0xd9, 0x37, 0xa3, 0xbe,
  0x1d, 0xe4, 0xb9, 0x3d, 0xdc, 0x68, 0x00, 0x3d, 0x10, 0x52, 0xcd, 0xbc,
  0x62, 0x73, 0xa3, 0x3e, 0x7a, 0x7d, 0x56, 0x3d, 0xca, 0x64, 0x3c, 0x3f,
  0xd0, 0xf2, 0x79, 0x3d, 0x2f, 0x3b, 0xe8, 0xbb, 0x81, 0x41, 0xa9, 0xbd,
  0x32, 0x48, 0xd7, 0xbd, 0xad, 0x49, 0x05, 0x3e, 0x0b, 0xdc, 0x10, 0xbe,
  0xb4, 0xcc, 0x0e, 0xbe, 0x4d, 0xe8, 0xa8, 0x3e, 0xad, 0x23, 0x76, 0xbb,
  0x5a, 0xad, 0x32, 0x3d, 0x1c, 0x6f, 0xbd, 0x3f, 0xd3, 0xf3, 0x6b, 0xbe,
  0x1f, 0xac, 0x18, 0xbe, 0x26, 0x3c, 0xc8, 0xbe, 0x7f, 0x76, 0xcf, 0x3d,
  0xb4, 0x5c, 0x7c, 0xbe, 0x57, 0xf6, 0xa0, 0xbc, 0x3b, 0x17, 0x12, 0xbd,
  0x03, 0x2e, 0x9f, 0x3d, 0x17, 0xfd, 0x02, 0xbe, 0x60, 0xf4, 0xed, 0xbe,
  0x28, 0x16, 0x62, 0xbe, 0x73, 0xd2, 0x42, 0xbe, 0x2c, 0x0a, 0xa2, 0xbd,
  0xde, 0xe5, 0x8b, 0x3d, 0xa6, 0x36, 0x4c, 0x3b, 0xae, 0xea, 0x36, 0x3f,
  0xdd, 0xd9, 0xcf, 0xbd, 0x10, 0x3d, 0x47, 0xbd, 0xfd, 0x08, 0x59, 0xbe,
  0xe3, 0x50, 0x52, 0x3d, 0xc7, 0xe5, 0x86, 0xbf, 0xb6, 0x3c, 0x6e, 0xbe,
  0x75, 0xac, 0xdc, 0x3e, 0x08, 0xca, 0x5d, 0x3d, 0x3c, 0x3d, 0x06, 0xbe,
  0x78, 0x51, 0x65, 0xbf, 0x29, 0xf9, 0x16, 0x3e, 0x9d, 0x6c, 0x1b, 0xbe,
  0x22, 0xd9, 0xfc, 0xbd, 0x9f, 0x6a, 0xc9, 0xbd, 0x52, 0x0d, 0x80, 0xbc,
  0xd6, 0x88, 0x6d, 0x3f, 0x52, 0xfc, 0x86, 0x3e, 0x5d, 0xee, 0xfc, 0xbd,
  0x82, 0x99, 0x7a, 0xbd, 0xe6, 0x6d, 0x0c, 0x3e, 0x77, 0xd8, 0xa2, 0xbf,
  0x06, 0xd7, 0x89, 0xbe, 0x58, 0x61, 0x7d, 0xbe, 0xc0, 0x13, 0x44, 0xbd,
  0xcd, 0x17, 0x1a, 0xbe, 0x06, 0xb2, 0x94, 0xbe, 0xa6, 0x64, 0x3e, 0x3e,
  0x5f, 0x45, 0x23, 0x3e, 0xdd, 0x20, 0xb7, 0x3c, 0x81, 0x14, 0x5e, 0xbe,
  0x0b, 0xcb, 0x80, 0xbd, 0x95, 0xf1, 0xa2, 0xbe, 0xdb, 0x9a, 0xaf, 0x3e,
  0xc9, 0xc5, 0xd8, 0x3d, 0xbc, 0x92, 0x9c, 0x3e, 0xa1, 0xe9, 0x9a, 0x3d,
  0x5f, 0x5c, 0xa1, 0xbf, 0x62, 0x5f, 0x5e, 0xbe, 0x33, 0x2f, 0xa1, 0x3d,
  0x5b, 0x9e, 0x27, 0x3e, 0xd4, 0xd7, 0xab, 0xbd, 0x6b, 0x15, 0x40, 0xbf,
  0x81, 0x81, 0x0e, 0x3c, 0x80, 0x6c, 0x0d, 0xbf, 0x57, 0xcb, 0x4d, 0x3c,
  0x54, 0xa5, 0xe7, 0xbe, 0x6a, 0x60, 0xb2, 0xbd, 0xc6, 0xb7, 0xc1, 0x3e,
  0xde, 0xef, 0xd0, 0x3c, 0xde, 0x61, 0x7b, 0x3e, 0x43, 0x64, 0x8e, 0x3c,
  0x4e, 0xb2, 0x99, 0x3d, 0xe7, 0xb7, 0x90, 0xbf, 0xcf, 0xa2, 0x53, 0x3e,
  0xcd, 0x1f, 0x8a, 0x3e, 0xce, 0x79, 0x0e, 0x3e, 0x28, 0x68, 0x46, 0x3e,
  0xb2, 0xc9, 0x3b, 0xbc, 0x5e, 0x0d, 0x99, 0xbd, 0x9c, 0x2d, 0x44, 0x3e,
  0xd9, 0xad, 0x8d, 0x3e, 0x6f, 0xb8, 0x34, 0x3c, 0x5d, 0x77, 0xa1, 0x3e,
  0xfe, 0x9b, 0x9f, 0x3e, 0x7d, 0xed, 0x76, 0xbe, 0xcf, 0x0b, 0xdb, 0x3e,
  0xf6, 0xb4, 0x96, 0x3e, 0x77, 0x32, 0x47, 0x3e, 0x9b, 0x79, 0x31, 0xbf,
  0x98, 0x2a, 0x63, 0x3e, 0x5d, 0x47, 0x85, 0x3e, 0x9a, 0x71, 0x83, 0xbb,
  0x0e, 0xcb, 0x9b, 0xbd, 0xe3, 0x1b, 0x15, 0xbe, 0xf7, 0xc9, 0x75, 0x3f,
  0xd8, 0xd5, 0xeb, 0xbe, 0xd3, 0xc9, 0x5e, 0xbe, 0x5b, 0x26, 0x82, 0x3e,
  0x43, 0x86, 0x95, 0x3e, 0x78, 0x28, 0xec, 0x3e, 0x7a, 0x9c, 0x65, 0xbd,
  0x2c, 0x7a, 0x50, 0x3b, 0xd1, 0x4f, 0x94, 0x3d, 0x6b, 0x56, 0xeb, 0xbc,
  0xa4, 0xfb, 0x23, 0xbf, 0xe6, 0x5d, 0x31, 0x3e, 0xcd, 0xee, 0x13, 0xbf,
  0xa5, 0x45, 0xd8, 0xbd, 0x45, 0xde, 0xfb, 0xbc, 0x6a, 0x0e, 0x19, 0x3e,
  0xd4, 0x12, 0x8c, 0xbe, 0xbb, 0x5b, 0xa4, 0xbd, 0x86, 0x9f, 0x14, 0x3e,
  0xce, 0x60, 0x0b, 0x3d, 0x1f, 0x66, 0x09, 0x3c, 0x36, 0xb5, 0xd6, 0x3e,
  0xd7, 0xad, 0x35, 0x3e, 0x7b, 0xc9, 0x93, 0x3d, 0x3b, 0x58, 0x91, 0xbe,
  0xff, 0x75, 0xad, 0xbd, 0xb6, 0xfc, 0x54, 0xbf, 0x93, 0x08, 0x69, 0x3e,
  0x13, 0x94, 0x0c, 0x3e, 0x1c, 0xde, 0x81, 0x3a, 0x18, 0x76, 0x64, 0x3d,
  0x40, 0x54, 0x7e, 0xbe, 0x37, 0x2b, 0x56, 0xbd, 0x58, 0xf9, 0x4f, 0x3e,
  0x37, 0xd1, 0x8b, 0x3e, 0xc7, 0xb4, 0xaa, 0x3e, 0x3f, 0x0b, 0x9a, 0xbd,
  0xcf, 0x10, 0xb9, 0x3e, 0x74, 0x25, 0x1b, 0x3e, 0x00, 0xbf, 0xc8, 0x3d,
  0x80, 0x1b, 0x2e, 0xbe, 0xdb, 0xbf, 0x58, 0x3d, 0x3a, 0xbd, 0x8d, 0xbf,
  0xef, 0xcf, 0x21, 0xbe, 0x83, 0x39, 0x25, 0x3f, 0xb3, 0x05, 0xfc, 0x3b,
  0xcc, 0x5e, 0x82, 0x3e, 0xcb, 0xd0, 0x9e, 0xbd, 0xf3, 0xfe, 0x7f, 0xbe,
  0x01, 0x27, 0x19, 0xbe, 0x07, 0x9b, 0x31, 0x3e, 0x70, 0x0e, 0xd5, 0xbe,
  0x7b, 0xec, 0xd3, 0x3d, 0x07, 0x73, 0x26, 0xbf, 0x72, 0x50, 0x05, 0xbf,
  0x6d, 0xe5, 0x0b, 0x3e, 0xe1, 0x74, 0x8a, 0xbe, 0x8c, 0x4d, 0x6d, 0x3d,
  0xfd, 0xa6, 0xbe, 0xbf, 0xfc, 0xcb, 0x86, 0xbe, 0x40, 0xc7, 0xc4, 0x3e,
  0xdd, 0xdd, 0x7f, 0xbe, 0x28, 0x59, 0x9d, 0x3d, 0x7d, 0xdb, 0xb8, 0xbe,
  0x6e, 0x8e, 0x27, 0x3e, 0xb8, 0x4f, 0x48, 0xbe, 0x55, 0x99, 0x7d, 0x3e,
  0xc1, 0xfe, 0xbe, 0xbe, 0x0f, 0xed, 0x4e, 0x3d, 0xca, 0x6e, 0x09, 0x3e,
  0x28, 0x1c, 0x8c, 0xbe, 0x30, 0x28, 0xca, 0xbd, 0x36, 0xef, 0x1f, 0xbf,
  0xe6, 0x51, 0xe6, 0x3d, 0x6c, 0xc9, 0x7d, 0xbf, 0x70, 0xe3, 0xc7, 0xbe,
  0xfa, 0x32, 0x55, 0xbd, 0x1f, 0x2b, 0xde, 0xbd, 0x16, 0xd9, 0x03, 0xbe,
  0x5f, 0x9f, 0xb5, 0xbe, 0x87, 0xfa, 0xaa, 0x3e, 0x00, 0xc2, 0x0e, 0xbf,
  0x2b, 0xe3, 0x9b, 0x3e, 0x0f, 0x25, 0xca, 0xbd, 0xba, 0x82, 0x58, 0xbd,
  0x5a, 0xc6, 0xfb, 0x3c, 0x88, 0x07, 0xaa, 0xbd, 0xac, 0x98, 0xd2, 0x3e,
  0xb9, 0x4d, 0xd8, 0xbe, 0xed, 0xaa, 0x21, 0x3e, 0xb9, 0x4d, 0x6b, 0xbf,
  0xea, 0xd8, 0xa6, 0xbe, 0x31, 0x8c, 0x17, 0x3f, 0x2e, 0x36, 0xd8, 0xbd,
  0x6b, 0x05, 0x8e, 0xbe, 0xff, 0x6f, 0x87, 0xbc, 0xcb, 0xd1, 0xdb, 0x3e,
  0xb9, 0x40, 0x64, 0xbe, 0xce, 0x13, 0x36, 0xbe, 0x95, 0x19, 0xa5, 0x3d,
  0xa6, 0x08, 0x53, 0xb9, 0x51, 0x56, 0x84, 0x3e, 0x46, 0x87, 0x6f, 0xbe,
  0x50, 0xe2, 0xa2, 0x3e, 0x10, 0xf7, 0xdb, 0x3d, 0x59, 0x38, 0x5b, 0xbd,
  0xc3, 0xbc, 0x3f, 0xbe, 0x81, 0x26, 0xdd, 0x3e, 0x69, 0xe0, 0xe7, 0x3e,
  0x4d, 0x56, 0x25, 0xbe, 0x8e, 0x30, 0x17, 0x3e, 0x1e, 0x32, 0xc6, 0x3c,
  0x96, 0xff, 0xd3, 0x3d, 0xc3, 0x08, 0x34, 0x3e, 0xae, 0x63, 0x2f, 0xbd,
  0xc0, 0xb8, 0xa3, 0x3d, 0x8a, 0xe0, 0x88, 0xbe, 0x10, 0x0a, 0x02, 0x3e,
  0x2f, 0x51, 0x19, 0xbe, 0x12, 0x43, 0x7d, 0xbe, 0x21, 0x30, 0xbf, 0x3e,
  0x4d, 0xc1, 0x1e, 0xbf, 0x60, 0xd4, 0xee, 0x3e, 0xb0, 0xfb, 0xd8, 0xbe,
  0xba, 0x4d, 0x5e, 0xbe, 0x5c, 0xb9, 0xfd, 0xbe, 0x28, 0x76, 0x10, 0xbe,
  0x17, 0x59, 0x46, 0x3d, 0x9a, 0xc9, 0xa1, 0xbe, 0x83, 0x85, 0x9d, 0xbe,
  0x4f, 0x89, 0x05, 0x3f, 0xbb, 0x88, 0xca, 0x3e, 0xd8, 0xf1, 0xb5, 0x3d,
  0xf3, 0x0f, 0x88, 0x3b, 0x78, 0xec, 0xc8, 0xbd, 0x57, 0x93, 0xc9, 0xbe,
  0x90, 0x85, 0x92, 0x3e, 0x92, 0xe6, 0xc9, 0xbe, 0x85, 0xbf, 0x0b, 0xbe,
  0xf9, 0xfe, 0xb4, 0xbc, 0x52, 0xaa, 0xdb, 0xbd, 0x33, 0x9a, 0x27, 0x3e,
  0x7c, 0xf8, 0x30, 0x3e, 0xb2, 0x22, 0x32, 0xbe, 0x54, 0xea, 0xbf, 0x3d,
  0x78, 0xeb, 0xca, 0xbd, 0x48, 0x1b, 0x04, 0x3f, 0xdb, 0x4c, 0x88, 0xbe,
  0x40, 0x85, 0x3d, 0xbe, 0x7c, 0x5b, 0x1a, 0x3f, 0x0c, 0x1b, 0x13, 0x3e,
  0x5f, 0xde, 0xc0, 0xbe, 0xe0, 0x24, 0xf0, 0xbd, 0x25, 0xc1, 0x29, 0x3e,
  0xe9, 0x81, 0x94, 0xbe, 0x0f, 0xc3, 0x01, 0x3f, 0x88, 0x74, 0x69, 0xbd,
  0x83, 0xd4, 0x28, 0x3f, 0x71, 0x55, 0xc2, 0x3d, 0xd0, 0xe1, 0x2a, 0xbe,
  0x59, 0x3c, 0xd7, 0x3e, 0xa3, 0x94, 0xca, 0x3e, 0x24, 0x69, 0xcd, 0x3c,
  0x69, 0xfc, 0x81, 0xbd, 0x72, 0xd0, 0x31, 0x3d, 0xb3, 0x1a, 0x0e, 0x3f,
  0xdb, 0xe6, 0x14, 0x3d, 0x4c, 0x96, 0x56, 0xbd, 0xc4, 0x61, 0xd0, 0xbd,
  0x09, 0x57, 0x82, 0xbe, 0xc8, 0xbf, 0x2d, 0xbe, 0x6e, 0x22, 0x35, 0x3f,
  0x5c, 0x1e, 0x05, 0x3f, 0xef, 0x29, 0x08, 0x3f, 0x42, 0x8e, 0x3a, 0x3e,
  0x3d, 0x70, 0xa1, 0xbd, 0x49, 0xb9, 0x64, 0x3e, 0xd1, 0xb6, 0xa5, 0x3e,
  0x03, 0xea, 0x35, 0x3e, 0x0c, 0xb5, 0xd0, 0xbc, 0x6d, 0x2a, 0xc8, 0xbd,
  0x29, 0xd6, 0x2d, 0x3f, 0xe5, 0x00, 0xe4, 0x3e, 0x0f, 0x1c, 0xab, 0xbc,
  0x6a, 0x0f, 0x0d, 0xbe, 0x92, 0x22, 0xba, 0xbe, 0xaf, 0xb3, 0x5a, 0xbe,
  0x1b, 0x5f, 0x88, 0x3e, 0x6b, 0x6b, 0x92, 0x3e, 0x1f, 0x6c, 0x25, 0xbc,
  0x8d, 0xe3, 0x91, 0x3e, 0x77, 0x89, 0xf8, 0x3c, 0x48, 0x0f, 0x01, 0x3e,
  0xc5, 0x91, 0x8d, 0x3e, 0xa7, 0x64, 0x6b, 0xbd, 0xc0, 0xe6, 0xc5, 0x3d,
  0x2f, 0xbf, 0xb4, 0x3b, 0x8c, 0x85, 0x96, 0x3e, 0xf2, 0x5d, 0x03, 0x3f,
  0x16, 0x89, 0x71, 0x3d, 0x21, 0xc5, 0xad, 0xbd, 0x7e, 0xa5, 0xe9, 0xbe,
  0xe4, 0x61, 0xed, 0xbd, 0xb8, 0xbb, 0x2e, 0x3e, 0xaf, 0x46, 0xf9, 0x3e,
  0x34, 0x3e, 0xb6, 0xbd, 0xe3, 0xd3, 0x78, 0x3e, 0x06, 0x8f, 0x0b, 0x3c,
  0xa8, 0xd1, 0x14, 0x3e, 0xb2, 0xb0, 0xc6, 0x3e, 0xb8, 0x65, 0x46, 0xbd,
  0x30, 0xe6, 0xe4, 0x3d, 0xed, 0xfc, 0xe1, 0xbd, 0xba, 0x44, 0xc8, 0x3e,
  0x76, 0xf5, 0x0f, 0x3e, 0x8a, 0xec, 0xdb, 0x3c, 0xf6, 0x21, 0x89, 0xbd,
  0xf4, 0xf9, 0xb2, 0xbe, 0xf8, 0xd2, 0xa3, 0xbe, 0xf9, 0x32, 0xf3, 0x3d,
  0x24, 0x97, 0xdb, 0x3e, 0x88, 0x0e, 0xb7, 0xbe, 0x24, 0x04, 0xb0, 0x3e,
  0x69, 0xac, 0x5f, 0xbd, 0x07, 0xa3, 0xb4, 0x3d, 0xf8, 0x58, 0xba, 0x3e,
  0x4e, 0xe4, 0x96, 0x3e, 0xf5, 0x78, 0xa5, 0x3e, 0x6c, 0x7d, 0x72, 0xbe,
  0x7f, 0x41, 0xc6, 0xbe, 0xa2, 0x89, 0x29, 0x3e, 0x8b, 0xbd, 0x08, 0x3e,
  0x4a, 0xee, 0x1b, 0x3d, 0x44, 0xd7, 0x58, 0xbd, 0x50, 0xbc, 0xed, 0xbd,
  0x75, 0x15, 0xed, 0xbe, 0x24, 0x7b, 0x02, 0x3f, 0x6e, 0x9f, 0x8e, 0xbf,
  0xba, 0x21, 0x96, 0x3e, 0x21, 0x1f, 0x44, 0xbe, 0x9c, 0x5c, 0x8c, 0x3e,
  0x1e, 0x90, 0x66, 0x3e, 0x40, 0x05, 0x10, 0x3e, 0x80, 0xc3, 0x3c, 0xbe,
  0x0b, 0x33, 0x14, 0xbe, 0x63, 0xa5, 0xac, 0x3e, 0xa2, 0xc1, 0x62, 0xbe,
  0x52, 0x6f, 0x4d, 0x3d, 0x39, 0xd1, 0x63, 0x3c, 0xf8, 0x36, 0xd3, 0xbe,
  0x21, 0x32, 0x04, 0xbe, 0xc4, 0xe6, 0xb4, 0xbd, 0x4a, 0x6a, 0xb0, 0x3d,
  0xbf, 0x86, 0x25, 0xbf, 0x6d, 0x2a, 0xef, 0x3d, 0x97, 0x52, 0x8f, 0xbc,
  0x97, 0xc3, 0xa3, 0x3e, 0x3a, 0x35, 0x2a, 0x3d, 0xc6, 0x20, 0x00, 0x3f,
  0xf4, 0xbb, 0xde, 0x3c, 0xad, 0x00, 0xf6, 0x3c, 0x97, 0x41, 0xae, 0x3d,
  0x00, 0xe5, 0x6d, 0x3e, 0x3a, 0x6e, 0xd1, 0xbc, 0xc1, 0x0b, 0x9c, 0x3d,
  0xa6, 0x3d, 0x8c, 0x3c, 0xac, 0xcb, 0xb8, 0x3d, 0x16, 0xea, 0x9d, 0xbe,
  0xcd, 0xc4, 0x2f, 0xbc, 0x89, 0xb8, 0x3b, 0xbf, 0x80, 0x30, 0xe5, 0xbc,
  0x80, 0xac, 0xc0, 0x3d, 0x6f, 0x47, 0x91, 0x3d, 0x8d, 0xad, 0x41, 0x3e,
  0x19, 0x51, 0x14, 0xbe, 0x7c, 0x5a, 0x40, 0x3e, 0xba, 0x3f, 0x93, 0xbd,
  0x09, 0xb8, 0xa5, 0x3e, 0x6c, 0x27, 0x0e, 0x3d, 0x44, 0xdd, 0xe8, 0xbd,
  0xf5, 0x93, 0x3a, 0x3d, 0xf6, 0x29, 0x28, 0xbe, 0xed, 0x15, 0x31, 0x3e,
  0x9a, 0x93, 0x81, 0x3e, 0xdf, 0x5d, 0x4c, 0x3e, 0x16, 0x3d, 0x3a, 0xbe,
  0xfa, 0x0c, 0x26, 0x3d, 0x62, 0x5c, 0x4f, 0x3d, 0xe7, 0xe8, 0x05, 0x3e,
  0xd3, 0x1e, 0x1e, 0x3d, 0x6e, 0x52, 0x1e, 0x3f, 0x46, 0x82, 0x47, 0x3e,
  0xde, 0xc0, 0x56, 0xbd, 0x83, 0xaa, 0x2b, 0x3f, 0x2b, 0xd4, 0x41, 0xbd,
  0x9c, 0x9f, 0x61, 0xbd, 0x10, 0x35, 0xa2, 0x3d, 0xce, 0xa6, 0x81, 0xbd,
  0x39, 0x1d, 0x3c, 0xbc, 0x38, 0x66, 0x59, 0xbe, 0xca, 0x58, 0x83, 0x3e,
  0x35, 0x39, 0x33, 0xbf, 0x73, 0xb6, 0x0c, 0x3e, 0xfe, 0x3d, 0x76, 0xbd,
  0xb5, 0xf9, 0x2d, 0x3e, 0x9b, 0xc7, 0x85, 0xbe, 0x37, 0x25, 0x4c, 0x3e,
  0x40, 0x5b, 0xc6, 0x3e, 0x69, 0x38, 0xcf, 0xbd, 0xc0, 0x0b, 0x52, 0x3e,
  0xba, 0x72, 0xe8, 0xbd, 0xe4, 0x4d, 0x21, 0xbe, 0x33, 0x6b, 0xcc, 0x3d,
  0xcb, 0x9f, 0x99, 0xbe, 0x1d, 0x7f, 0x88, 0xbe, 0xb4, 0xc5, 0xaf, 0x3e,
  0xe3, 0xd0, 0x1d, 0x3e, 0x26, 0x48, 0x03, 0x3f, 0x45, 0xfb, 0x3e, 0xbe,
  0xbe, 0xa5, 0x40, 0x3c, 0x84, 0xb1, 0x79, 0xbe, 0x97, 0xa4, 0x0b, 0x3d,
  0x1e, 0x89, 0x84, 0xbe, 0xcd, 0x99, 0x39, 0x3e, 0x83, 0xc3, 0x74, 0xbe,
  0xc4, 0xbb, 0x9a, 0x3e, 0xd7, 0x63, 0x2e, 0xbe, 0x5f, 0x83, 0xae, 0x3d,
  0x05, 0x7d, 0xfa, 0x3d, 0x06, 0x58, 0x4c, 0xbd, 0x3e, 0x16, 0x29, 0x3d,
  0x27, 0x2d, 0xc5, 0x3e, 0x20, 0xcb, 0x09, 0xbe, 0xc1, 0xf0, 0x24, 0xbf,
  0x62, 0xe6, 0x1e, 0x3d, 0xc6, 0x77, 0xc7, 0x3d, 0x2f, 0x65, 0x71, 0x3c,
  0xb7, 0x97, 0x95, 0xb9, 0xd4, 0x83, 0x20, 0x3d, 0x18, 0xad, 0xa6, 0x3d,
  0x2b, 0x91, 0xe2, 0x3d, 0x9f, 0x46, 0x22, 0xbe, 0x9e, 0x12, 0xe0, 0xbd,
  0xcb, 0x1f, 0x53, 0x3e, 0x40, 0xe6, 0x1d, 0x3f, 0xf1, 0x80, 0xcf, 0x3c,
  0x5d, 0xb7, 0x8a, 0x3e, 0xfa, 0x00, 0x97, 0x3d, 0xa9, 0x4f, 0x6f, 0x3e,
  0x05, 0x97, 0x6c, 0xbd, 0x38, 0x7c, 0xfb, 0xbd, 0x99, 0x9c, 0x92, 0xbd,
  0xaf, 0x06, 0x13, 0x3e, 0xa6, 0x80, 0xf8, 0xbd, 0xe5, 0xa1, 0xc9, 0xbc,
  0xd6, 0x7a, 0xa7, 0x3e, 0x25, 0x75, 0x67, 0xbd, 0x30, 0x71, 0x10, 0x3f,
  0xd6, 0x8d, 0x3c, 0xbe, 0x33, 0xe0, 0x08, 0x3f, 0x0d, 0x75, 0x92, 0x3e,
  0x85, 0x08, 0xa0, 0x3e, 0xf4, 0x4c, 0x1e, 0x3e, 0x23, 0x33, 0x29, 0x3e,
  0x97, 0x7f, 0xd4, 0x3e, 0x18, 0xaf, 0x90, 0xbd, 0xe5, 0x2b, 0x37, 0xbe,
  0x27, 0x48, 0xf0, 0xbd, 0x5f, 0x4d, 0x0a, 0x3f, 0x91, 0x7a, 0xb5, 0x3d,
  0xc2, 0x24, 0x1b, 0x3e, 0x1f, 0xdc, 0x15, 0x3f, 0xdc, 0x6f, 0x99, 0xbd,
  0xdc, 0xaf, 0x3a, 0x3f, 0xe5, 0x51, 0x84, 0x3e, 0xbb, 0x1e, 0x8d, 0x3e,
  0x39, 0x02, 0x25, 0xbd, 0x6c, 0x2a, 0xe8, 0x3a, 0x2f, 0xf0, 0xd6, 0xbd,
  0xe1, 0x39, 0x00, 0xbf, 0x4c, 0xc0, 0x92, 0xbd, 0xa9, 0xf8, 0x00, 0x3e,
  0x7b, 0x01, 0x0d, 0x3e, 0xdf, 0x15, 0x69, 0xbd, 0x7d, 0xf4, 0xdf, 0x3e,
  0xb5, 0x40, 0xdb, 0x3e, 0xda, 0x8b, 0x2f, 0x3e, 0xac, 0x6a, 0xf7, 0x3e,
  0x64, 0xf9, 0xac, 0xbd, 0x2c, 0xcd, 0x47, 0x3f, 0x78, 0x5d, 0x5d, 0x3d,
  0x4f, 0x59, 0x2d, 0x3e, 0xe7, 0xc8, 0xcb, 0xbc, 0xd9, 0xe1, 0x81, 0x3d,
  0x2e, 0x8c, 0xcd, 0x3d, 0x24, 0xcf, 0xbe, 0xbe, 0x64, 0x94, 0xe7, 0x3e,
  0xa3, 0x6e, 0x80, 0x3e, 0x6b, 0x6c, 0x25, 0x3e, 0xb4, 0xa6, 0x44, 0xbe,
  0xbd, 0x88, 0xc9, 0x3e, 0x0e, 0x3c, 0x8c, 0x3e, 0xba, 0x16, 0xac, 0x3d,
  0x54, 0xcd, 0xb2, 0x3c, 0x04, 0xdb, 0xfd, 0xbd, 0x74, 0x06, 0xc5, 0x3e,
  0xb6, 0x59, 0x26, 0x3e, 0xbf, 0xc7, 0x51, 0x3e, 0x0f, 0x50, 0x10, 0xbe,
  0x30, 0x1f, 0xa8, 0xbd, 0x62, 0xc5, 0x33, 0xbe, 0xb7, 0x0b, 0x34, 0xbf,
  0xc1, 0x77, 0x60, 0x3e, 0x20, 0x07, 0xaf, 0x3e, 0x06, 0xe4, 0x4c, 0xbe,
  0xf1, 0xbb, 0x11, 0xbd, 0xe4, 0x7b, 0x6c, 0x3e, 0x73, 0x65, 0x00, 0xbf,
  0x01, 0x9d, 0xbe, 0x3c, 0xd9, 0x2b, 0xea, 0x3b, 0xc6, 0xbd, 0x7d, 0x3d,
  0x74, 0xd7, 0x49, 0x3e, 0x2d, 0x37, 0xb7, 0x3e, 0x53, 0xd6, 0x16, 0x3d,
  0xa6, 0xe8, 0x4e, 0xbd, 0x59, 0x99, 0x40, 0x3e, 0xff, 0xcb, 0x3c, 0xbe,
  0x64, 0x4a, 0x76, 0xbc, 0x35, 0x23, 0x1f, 0x3f, 0xb8, 0x65, 0x06, 0x3f,
  0x63, 0xc6, 0x9f, 0x3c, 0x99, 0x88, 0x69, 0xbd, 0x0b, 0x9a, 0xce, 0x3a,
  0x29, 0xea, 0x4f, 0xbe, 0x96, 0xb2, 0x98, 0x3d, 0x01, 0x27, 0x74, 0xbd,
  0xd1, 0x00, 0xc4, 0x3d, 0x86, 0x96, 0x68, 0x3f, 0xb1, 0x3f, 0x5c, 0x3e,
  0xd9, 0x05, 0xa4, 0x3e, 0x6a, 0x49, 0xb9, 0xbd, 0x6a, 0x91, 0x38, 0xbe,
  0x00, 0x6c, 0xe7, 0x3b, 0xf4, 0x61, 0x8c, 0x3d, 0xa7, 0x42, 0x64, 0x3e,
  0x42, 0x9b, 0x7f, 0xbc, 0xde, 0x1b, 0x88, 0xbd, 0xcf, 0xcc, 0x37, 0xbd,
  0xf6, 0xe7, 0xfa, 0x3e, 0xe8, 0xc4, 0x20, 0xbe, 0x29, 0xb7, 0xe3, 0x3d,
  0x26, 0xf1, 0x4e, 0x3e, 0x01, 0x25, 0xb7, 0xbe, 0xf3, 0xcb, 0x88, 0x3f,
  0x68, 0x1b, 0xfb, 0x3c, 0xd6, 0x9e, 0x42, 0x3e, 0x10, 0x75, 0x6b, 0x3d,
  0x9e, 0x39, 0x08, 0x3e, 0x53, 0x40, 0x4b, 0xbe, 0x35, 0x24, 0xb6, 0xbe,
  0xf3, 0x70, 0x6e, 0x3d, 0xa8, 0x91, 0x03, 0x3d, 0x39, 0xd3, 0x85, 0x3e,
  0x79, 0x82, 0x12, 0xbd, 0x80, 0x3b, 0x10, 0x3f, 0xa2, 0xf7, 0xf6, 0xbe,
  0x2c, 0x7f, 0x8b, 0x3e, 0xde, 0xf4, 0x14, 0x3f, 0x90, 0x98, 0x55, 0x3e,
  0xf8, 0x52, 0x1c, 0x3f, 0x71, 0x18, 0x62, 0x3e, 0x81, 0xf5, 0x4a, 0x3e,
  0xe1, 0x66, 0xbc, 0x3c, 0xac, 0xfc, 0xe6, 0xbe, 0x59, 0x52, 0x98, 0xbd,
  0x8e, 0x80, 0xfe, 0xbc, 0x80, 0xfd, 0x5b, 0x3d, 0xf3, 0x01, 0x92, 0x3d,
  0x74, 0xa8, 0x38, 0xbc, 0x5e, 0x7c, 0x53, 0xbd, 0xe8, 0x79, 0x9f, 0x3e,
  0x3f, 0x8c, 0x16, 0xbd, 0xfb, 0x07, 0xb4, 0x3e, 0x24, 0xef, 0xdd, 0xbd,
  0xbc, 0x0f, 0x07, 0xbf, 0x8b, 0x18, 0x24, 0x3f, 0x0e, 0xac, 0x08, 0xbc,
  0x5f, 0x5e, 0x16, 0x3e, 0xf7, 0x41, 0x79, 0x3c, 0xa3, 0x1d, 0xeb, 0xbe,
  0xe4, 0xf5, 0xbf, 0xbe, 0x38, 0xba, 0x4d, 0xbe, 0x66, 0x3d, 0x74, 0x3e,
  0x92, 0x09, 0x92, 0x3e, 0xbf, 0x93, 0x0d, 0xbe, 0x8e, 0x5c, 0xad, 0xbd,
  0x06, 0xa4, 0x14, 0x3f, 0x51, 0x11, 0xa1, 0xbe, 0xef, 0x05, 0x7b, 0xbe,
  0xd0, 0xb9, 0xa9, 0xbd, 0x64, 0x5a, 0xca, 0xbe, 0xd3, 0x41, 0xba, 0x3e,
  0x60, 0xda, 0x38, 0x3e, 0xcf, 0x2a, 0x42, 0x3e, 0x2e, 0xa1, 0xec, 0xbc,
  0x54, 0xd2, 0xbd, 0xbe, 0xec, 0x34, 0x24, 0xbf, 0xb6, 0x25, 0x24, 0x3c,
  0xf2, 0x54, 0x52, 0x3e, 0xca, 0xc6, 0x05, 0xbe, 0x33, 0x18, 0xfc, 0x3c,
  0x3b, 0x2a, 0x26, 0x3d, 0x0f, 0xc5, 0xd3, 0x3e, 0xc4, 0x17, 0x19, 0xbc,
  0x0b, 0xe8, 0xb3, 0x3d, 0x7b, 0x5c, 0x24, 0xbe, 0x14, 0x8f, 0x8a, 0xbe,
  0xbe, 0x98, 0x6d, 0x3f, 0xb3, 0x49, 0xf1, 0x3c, 0xbf, 0xa3, 0x30, 0x3e,
  0x93, 0xfd, 0xab, 0x3d, 0xac, 0x51, 0x1c, 0x3c, 0x5e, 0x9e, 0x01, 0xbf,
  0x32, 0x81, 0xa5, 0x3d, 0x94, 0x31, 0x2b, 0x3f, 0xec, 0x04, 0x24, 0x3f,
  0x53, 0x8a, 0x7f, 0xbd, 0x41, 0xb5, 0x78, 0xbd, 0xca, 0x4c, 0x3f, 0x3f,
  0xec, 0x2a, 0x5e, 0x3e, 0x47, 0x73, 0x4b, 0xbd, 0xd9, 0x0e, 0x88, 0x3e,
  0xfd, 0x5f, 0xa3, 0x3d, 0x9f, 0xf4, 0x83, 0xbc, 0xdd, 0x52, 0x9e, 0xbd,
  0x3d, 0xc2, 0x14, 0x3e, 0xae, 0x56, 0x21, 0xbc, 0x40, 0x60, 0xa7, 0xbe,
  0x88, 0xf5, 0xec, 0xbd, 0xe4, 0xaf, 0xcf, 0x3e, 0x95, 0x00, 0x98, 0x3e,
  0x76, 0x15, 0x3b, 0x3c, 0x1c, 0xa1, 0x2a, 0x3d, 0xc9, 0xb4, 0x6d, 0x3d,
  0xe2, 0xca, 0x1c, 0x3f, 0xcd, 0x8d, 0x6d, 0xbe, 0x58, 0xdd, 0x14, 0x3e,
  0xb9, 0x82, 0xed, 0x3e, 0x01, 0x87, 0x8f, 0xbe, 0x70, 0x2c, 0x35, 0x3f,
  0x1d, 0x9d, 0x15, 0xbc, 0x99, 0xe5, 0xa1, 0xbe, 0x99, 0x75, 0x80, 0x3c,
  0x5b, 0x04, 0x3d, 0xbf, 0x28, 0x0f, 0xf8, 0x39, 0x25, 0xe5, 0xa9, 0x3d,
  0x4b, 0x11, 0xdc, 0x3e, 0x92, 0x55, 0xb3, 0xbe, 0x04, 0x6a, 0x18, 0xbd,
  0x72, 0xd4, 0x15, 0x3e, 0x94, 0x5e, 0x10, 0xbb, 0x9b, 0xbd, 0x01, 0x3d,
  0x67, 0x9c, 0x66, 0xbe, 0x08, 0x2d, 0x00, 0xbe, 0xe0, 0x8b, 0x23, 0xbf,
  0x0b, 0x74, 0x98, 0xbd, 0xd2, 0x72, 0xa6, 0xbd, 0xc0, 0x9e, 0x75, 0x3e,
  0x36, 0xd1, 0xe8, 0xbe, 0x37, 0xdb, 0x34, 0xbd, 0x3d, 0xce, 0x16, 0x3d,
  0xd4, 0x5a, 0x5e, 0x3e, 0x7a, 0xf3, 0x4a, 0xbc, 0x5c, 0xe9, 0x0d, 0xbf,
  0x8b, 0x1f, 0x17, 0x3e, 0xe5, 0x7b, 0x83, 0x3e, 0x05, 0xb7, 0x89, 0xbd,
  0x04, 0xfc, 0x34, 0xbe, 0x06, 0x5b, 0x2e, 0xbe, 0xcc, 0x75, 0x61, 0xbd,
  0xb8, 0x68, 0x44, 0x3c, 0x90, 0xff, 0x04, 0xbe, 0x78, 0x72, 0x84, 0x3e,
  0xc4, 0xd5, 0x44, 0x3d, 0x55, 0x97, 0x97, 0x3d, 0x1e, 0xbe, 0x83, 0xbe,
  0xb1, 0xd4, 0xce, 0x3e, 0x1f, 0xa7, 0xab, 0x3d, 0xcd, 0xb8, 0xe6, 0xbe,
  0x90, 0x7b, 0x85, 0xbf, 0x9e, 0x3c, 0xa1, 0xbe, 0x5c, 0x37, 0x4d, 0x3e,
  0xfe, 0xcb, 0x23, 0xbe, 0x78, 0xf6, 0x89, 0xbe, 0xae, 0xe6, 0x07, 0xbe,
  0x91, 0x27, 0x30, 0x3d, 0x20, 0x59, 0x6b, 0x3e, 0x77, 0xa6, 0x5f, 0xbe,
  0xb1, 0x57, 0x21, 0x3e, 0x99, 0xa6, 0xaf, 0x3e, 0xac, 0xc6, 0x5c, 0xbe,
  0x53, 0xbd, 0xbd, 0xbe, 0x62, 0x9a, 0xd6, 0x3e, 0x99, 0xd4, 0x75, 0xbe,
  0xaf, 0x11, 0x0f, 0x3d, 0x83, 0x8e, 0xb9, 0xbf, 0x6d, 0x70, 0xf2, 0xbd,
  0xe7, 0xdf, 0xcd, 0x3e, 0x5a, 0xa7, 0xaf, 0xbe, 0x7f, 0x34, 0x93, 0xbd,
  0x38, 0x25, 0x62, 0xbf, 0x0d, 0xb9, 0x2d, 0x3d, 0x3d, 0x26, 0xb0, 0xbd,
  0x6f, 0xb5, 0x47, 0xbf, 0x6d, 0x53, 0x51, 0x3e, 0x36, 0x6b, 0xeb, 0x3d,
  0xab, 0x6b, 0x60, 0xbe, 0xdb, 0x4c, 0x1b, 0x3d, 0xd5, 0x24, 0xb6, 0x3e,
  0xb3, 0x9e, 0x88, 0xbd, 0x41, 0xc7, 0x00, 0xbf, 0x29, 0x02, 0x66, 0xbf,
  0x06, 0x3e, 0x46, 0xbd, 0xc4, 0xbf, 0xa3, 0x3d, 0xd7, 0x11, 0x12, 0x3e,
  0x05, 0x3f, 0xa9, 0xbd, 0x92, 0xbb, 0x1c, 0xbf, 0x06, 0xe4, 0xed, 0x3d,
  0x8e, 0x6c, 0x13, 0xbe, 0xe4, 0x38, 0x37, 0xbc, 0x83, 0x9c, 0x30, 0x3e,
  0x3d, 0xd3, 0x22, 0xbc, 0xf5, 0xd0, 0xc7, 0xbd, 0x64, 0xc1, 0x8f, 0x3d,
  0xe8, 0x35, 0xd6, 0x3d, 0xaa, 0xbb, 0x03, 0x3e, 0x01, 0x92, 0xae, 0xbd,
  0x18, 0x99, 0xf7, 0xbe, 0x68, 0xa6, 0x18, 0xbe, 0x14, 0xb1, 0x3b, 0xbd,
  0x92, 0x16, 0x98, 0xbe, 0xd5, 0xb2, 0x33, 0xbc, 0x95, 0xcd, 0x87, 0xbe,
  0xa4, 0x82, 0xba, 0xbe, 0x94, 0xbb, 0x89, 0xbd, 0x90, 0x20, 0x17, 0xbf,
  0x7b, 0xc8, 0x00, 0x3e, 0x4e, 0x4c, 0xde, 0x3d, 0xb5, 0xd6, 0xd7, 0xbd,
  0x31, 0xac, 0x6c, 0xbe, 0x93, 0x26, 0xb6, 0x3d, 0x1f, 0x45, 0x92, 0x3e,
  0x64, 0x12, 0xf9, 0x3d, 0x62, 0x6d, 0xd6, 0xbe, 0xdb, 0x6b, 0x88, 0x3d,
  0x54, 0x15, 0x5b, 0xbd, 0xd5, 0x2a, 0xc8, 0x3c, 0x15, 0x03, 0x34, 0x3d,
  0xd4, 0x36, 0xf9, 0xbe, 0x2a, 0x66, 0x67, 0xbe, 0xef, 0x99, 0x05, 0xbe,
  0x51, 0x75, 0x63, 0xbf, 0x7d, 0x4d, 0x79, 0x3e, 0xfc, 0x03, 0xfd, 0xbd,
  0xec, 0xd2, 0xf7, 0xbd, 0x1a, 0x2b, 0x3a, 0x3e, 0xd3, 0x6c, 0x81, 0x3e,
  0xf7, 0x3f, 0x5d, 0x3e, 0x75, 0x94, 0x34, 0x3e, 0xc5, 0x9a, 0x56, 0x3e,
  0x0f, 0xf2, 0xca, 0xbe, 0x37, 0x75, 0xd1, 0x3d, 0xe5, 0x36, 0x35, 0xbe,
  0x7e, 0x64, 0x0e, 0xbe, 0xa9, 0x45, 0x1f, 0x3e, 0x44, 0x6c, 0x82, 0xbe,
  0x98, 0x3d, 0x82, 0xbd, 0xc5, 0x3f, 0x64, 0xbf, 0x73, 0xde, 0x59, 0xbe,
  0x39, 0xba, 0x84, 0xbd, 0x92, 0x8b, 0x0c, 0x3a, 0x4e, 0x0c, 0x0e, 0xbd,
  0xa7, 0x6e, 0xd8, 0x3d, 0x78, 0xb0, 0x6a, 0x3e, 0xdc, 0x5f, 0xc4, 0xbd,
  0x91, 0x00, 0x93, 0xbe, 0x5d, 0x6c, 0x03, 0xbd, 0x4f, 0x8e, 0x88, 0x3d,
  0xe9, 0xbc, 0x08, 0xbe, 0x46, 0xf3, 0x89, 0xbd, 0xd1, 0xef, 0xf8, 0xbe,
  0x97, 0x07, 0x52, 0xbe, 0xfc, 0xc4, 0xa1, 0xbc, 0x36, 0x2e, 0xda, 0xbe,
  0xf2, 0xd8, 0x3b, 0x3d, 0x9b, 0x26, 0xa1, 0x3e, 0x76, 0x9a, 0xe2, 0xbd,
  0x70, 0xe1, 0x42, 0x3e, 0x07, 0x6c, 0xa0, 0x3e, 0x7f, 0x9f, 0x0a, 0xbd,
  0x9d, 0x02, 0x5e, 0xbe, 0x38, 0x85, 0x07, 0x3d, 0x07, 0x0d, 0xae, 0x3d,
  0x57, 0xd5, 0x34, 0xbd, 0x1c, 0x4f, 0xa9, 0xbd, 0xd7, 0xf2, 0x96, 0xbe,
  0x36, 0x2f, 0x78, 0x3e, 0x30, 0x0b, 0x51, 0x3e, 0x7d, 0x57, 0x19, 0xbe,
  0xd9, 0xac, 0xc4, 0xbd, 0xeb, 0x8f, 0xb9, 0x3d, 0x6d, 0x30, 0x23, 0x3c,
  0xc7, 0x6b, 0x81, 0x3d, 0x1d, 0xec, 0x9a, 0x3e, 0x0e, 0x52, 0xe1, 0x3d,
  0x1a, 0xa4, 0xeb, 0x3d, 0x45, 0x03, 0xe1, 0x3d, 0xcf, 0xbf, 0x3c, 0x3f,
  0xaa, 0x6e, 0x60, 0xbe, 0x31, 0x85, 0x9f, 0xbc, 0xfb, 0xe4, 0xfc, 0xbe,
  0x83, 0x38, 0xc9, 0xbe, 0xb8, 0xa9, 0x37, 0xbe, 0xa9, 0x84, 0xb2, 0xbe,
  0xba, 0x14, 0x58, 0xbd, 0xbc, 0xf4, 0x37, 0xbf, 0x4c, 0xe0, 0x43, 0x3e,
  0x5a, 0x37, 0x83, 0x3e, 0x5f, 0x07, 0x29, 0xbe, 0xa8, 0xd3, 0x00, 0x3e,
  0xa8, 0x76, 0x20, 0x3e, 0x31, 0x15, 0xff, 0x3e, 0xbb, 0x94, 0x97, 0xbe,
  0x62, 0x91, 0x37, 0xbe, 0xfc, 0x03, 0xdf, 0xbd, 0x47, 0xa2, 0xd3, 0x3d,
  0x65, 0xe7, 0xf6, 0xbe, 0x9f, 0x90, 0x45, 0xbe, 0xf9, 0xb0, 0x5e, 0xbf,
  0x57, 0x04, 0x57, 0xbd, 0x66, 0x8e, 0x64, 0x3e, 0x7a, 0x8b, 0x38, 0xbf,
  0x3c, 0x27, 0x01, 0x3e, 0xcd, 0x1c, 0x10, 0x3e, 0x47, 0x7f, 0x01, 0xbe,
  0x8b, 0x91, 0xa4, 0xbe, 0x1e, 0x39, 0x27, 0x3e, 0xf8, 0xa3, 0xde, 0x3e,
  0x86, 0xba, 0x40, 0xbe, 0x14, 0x28, 0x1d, 0xbe, 0x44, 0x16, 0x1b, 0x3e,
  0x47, 0x73, 0x22, 0x3e, 0x82, 0xdd, 0x45, 0xbe, 0x4f, 0xc8, 0xf4, 0x3b,
  0x29, 0xea, 0x4d, 0xbf, 0x3a, 0x41, 0x4e, 0xbe, 0xb5, 0xd1, 0x33, 0x3e,
  0x41, 0xfa, 0x0a, 0xbf, 0x6c, 0x5c, 0x49, 0x3e, 0x87, 0xe3, 0xe7, 0x3d,
  0xa7, 0x79, 0xfa, 0xbd, 0x7b, 0x6e, 0xbb, 0xbe, 0xf4, 0xa3, 0xd7, 0x3e,
  0xf6, 0xe1, 0x59, 0x3d, 0xd0, 0x81, 0x94, 0xbe, 0x32, 0xdf, 0x82, 0xbf,
  0xf9, 0xf1, 0xf2, 0x3d, 0x0f, 0x5e, 0x1e, 0x3e, 0xb6, 0xbc, 0x6b, 0xbe,
  0x5f, 0xdc, 0x9f, 0x3c, 0xf2, 0xad, 0x52, 0xbf, 0xbf, 0xf5, 0x21, 0x3e,
  0x4d, 0x4a, 0x55, 0x3d, 0xc0, 0xa3, 0x8a, 0xbe, 0x04, 0x5e, 0x02, 0x3f,
  0xea, 0xc0, 0x38, 0xbd, 0x31, 0xd8, 0xa7, 0xbd, 0x93, 0x73, 0x8d, 0x3d,
  0xef, 0x12, 0xad, 0x3d, 0x86, 0xd4, 0x63, 0xbe, 0xa2, 0x2c, 0x92, 0x3e,
  0x6a, 0x8b, 0xa7, 0xbe, 0xea, 0x56, 0x2c, 0xbe, 0xaa, 0x97, 0xd8, 0xbb,
  0x12, 0x2c, 0x37, 0xbd, 0x68, 0xb0, 0x18, 0x3d, 0x17, 0x1f, 0x83, 0xbd,
  0x88, 0x6d, 0x3e, 0xbe, 0x6a, 0xed, 0x5a, 0x3e, 0x33, 0x8b, 0x8d, 0xbd,
  0x79, 0xac, 0x25, 0xbe, 0x1c, 0x8f, 0xb8, 0x3e, 0x2d, 0xdc, 0xf9, 0xbc,
  0x1a, 0x66, 0x69, 0x3e, 0x0a, 0x12, 0x2e, 0xbe, 0x0c, 0xe1, 0x2b, 0x3e,
  0x23, 0xcc, 0x74, 0x3e, 0xd5, 0x22, 0x58, 0x3f, 0xa2, 0x8c, 0xc2, 0x3d,
  0xe4, 0x49, 0x90, 0x3e, 0x54, 0x89, 0xdc, 0xbd, 0x41, 0x02, 0xfd, 0xbc,
  0xf7, 0x82, 0x05, 0x3e, 0x9b, 0x16, 0xb5, 0x3d, 0xda, 0xae, 0xdd, 0x3d,
  0x72, 0xe1, 0xcc, 0xbe, 0xd2, 0xfd, 0x6b, 0xbd, 0x0a, 0xce, 0xe5, 0x3d,
  0x57, 0x5e, 0x70, 0xbd, 0x95, 0xe1, 0x6c, 0xbe, 0x19, 0xb4, 0xc1, 0x3d,
  0xfe, 0x5e, 0x52, 0x3e, 0x5b, 0x68, 0xa7, 0xbc, 0x3c, 0x43, 0x21, 0xbf,
  0x67, 0x20, 0x0a, 0xbe, 0xe1, 0xe7, 0x80, 0x3e, 0x06, 0x0b, 0x0c, 0xbc,
  0x39, 0xa8, 0xff, 0xbc, 0x7f, 0x5b, 0x6b, 0xbe, 0x74, 0xd0, 0x59, 0x3e,
  0x39, 0xde, 0xe9, 0x3d, 0xb8, 0x9b, 0x3f, 0x3e, 0x9f, 0xd4, 0x0b, 0x3f,
  0xe5, 0x69, 0xba, 0xbc, 0x38, 0x6b, 0x24, 0xbe, 0x4d, 0x93, 0xa3, 0xbf,
  0x54, 0xe4, 0xdc, 0x3c, 0xbc, 0x93, 0xd3, 0xbe, 0x8f, 0x48, 0x88, 0x3d,
  0xad, 0x44, 0x8b, 0xbf, 0xc8, 0x50, 0x32, 0xbe, 0x67, 0x7f, 0x00, 0x3f,
  0xd9, 0x91, 0xb1, 0x3d, 0x76, 0x8d, 0xd5, 0x3d, 0x67, 0xf4, 0x2e, 0xbe,
  0xed, 0xc3, 0x40, 0x3e, 0x89, 0xe8, 0x7e, 0x3c, 0xdf, 0x40, 0xc8, 0xbd,
  0x75, 0xae, 0xdb, 0x3e, 0x8f, 0x48, 0x92, 0xbe, 0x75, 0x58, 0xed, 0xbd,
  0x7f, 0x56, 0x26, 0xbf, 0x10, 0x87, 0x96, 0x3e, 0xc9, 0x6b, 0xb8, 0xbe,
  0xdc, 0x13, 0xa1, 0x3d, 0xab, 0xd4, 0x96, 0xbe, 0xfc, 0xd7, 0x0b, 0xbd,
  0xbd, 0xb7, 0x33, 0x3e, 0x45, 0x96, 0xe1, 0xbd, 0xfd, 0xfc, 0x0d, 0xbe,
  0x41, 0x06, 0xd4, 0xbe, 0xc2, 0x89, 0xed, 0x3d, 0x8e, 0x37, 0xf7, 0x3d,
  0x08, 0xfe, 0x54, 0xbe, 0xde, 0xf0, 0x69, 0x3e, 0xbd, 0x41, 0x95, 0xbe,
  0x7d, 0x6a, 0x8b, 0xbe, 0x03, 0xdc, 0x23, 0xbf, 0x79, 0xfd, 0xaf, 0x3e,
  0xba, 0xee, 0x54, 0xbd, 0xdb, 0xfa, 0x79, 0x3d, 0x3c, 0x3b, 0xca, 0xbe,
  0xe3, 0x9e, 0x16, 0xbe, 0x60, 0x4f, 0xe8, 0x3d, 0x0a, 0x16, 0x52, 0x3e,
  0xf4, 0xc4, 0x68, 0xbe, 0x92, 0x82, 0xec, 0xbe, 0x63, 0x4e, 0x33, 0x3e,
  0xee, 0x24, 0x4d, 0xbd, 0x0c, 0x73, 0xeb, 0xbe, 0x58, 0x77, 0xfb, 0x3d,
  0x84, 0x1a, 0x20, 0xbd, 0xa9, 0xc5, 0xd3, 0xbe, 0x0d, 0x7d, 0x4c, 0xbe,
  0x34, 0xa6, 0x09, 0x3e, 0x46, 0xbc, 0xb1, 0xbe, 0x61, 0xf7, 0xb5, 0x3d,
  0x85, 0x62, 0xe2, 0xbe, 0xf7, 0x2b, 0x5a, 0x3d, 0x35, 0xe9, 0x6a, 0xbd,
  0x2c, 0x65, 0x27, 0x3e, 0xb2, 0xa5, 0x4f, 0xbf, 0x11, 0xde, 0x8a, 0x3d,
  0xce, 0x94, 0x85, 0x3e, 0x55, 0x26, 0xc4, 0x3a, 0x91, 0xe3, 0xf4, 0xbe,
  0x0e, 0x50, 0x3b, 0x3d, 0xea, 0xaa, 0x7e, 0xbe, 0xa1, 0xf2, 0xcd, 0xbe,
  0x49, 0x6b, 0xa9, 0xbe, 0x6f, 0x94, 0x53, 0x3d, 0x49, 0x1d, 0x20, 0x3d,
  0xf2, 0x16, 0x5f, 0xbe, 0xe8, 0x26, 0xed, 0x3e, 0xbc, 0x03, 0x93, 0xbd,
  0x5b, 0x85, 0x56, 0x3e, 0x16, 0x4c, 0xe3, 0xbe, 0xa4, 0xb9, 0x4c, 0xbe,
  0xb8, 0xdd, 0x0a, 0xbf, 0xc5, 0x6a, 0xd8, 0xbd, 0x9c, 0x6f, 0x0e, 0xbe,
  0x76, 0x48, 0x89, 0xbe, 0xdd, 0xe7, 0xa6, 0x3d, 0xfd, 0xdd, 0xbe, 0x3c,
  0x14, 0x5d, 0x81, 0xbe, 0xf2, 0x1e, 0x3b, 0x3e, 0x82, 0x72, 0x19, 0x3d,
  0x4c, 0xce, 0x1b, 0xbe, 0x6f, 0x53, 0x24, 0xbd, 0x6d, 0x37, 0x9d, 0x3e,
  0xde, 0xac, 0x62, 0xbc, 0x7b, 0x64, 0x03, 0x3e, 0xa4, 0x61, 0x74, 0x3e,
  0x51, 0xad, 0xa6, 0xbd, 0x05, 0xbd, 0x55, 0xbf, 0xdb, 0x6e, 0x64, 0x3d,
  0xc5, 0x88, 0xe2, 0xbd, 0xdb, 0x53, 0x15, 0xbd, 0x1a, 0xcd, 0xe4, 0x3e,
  0xc9, 0x33, 0x2a, 0x3e, 0x06, 0xc3, 0xeb, 0xbd, 0xd4, 0xc5, 0xa6, 0x3e,
  0x12, 0x39, 0x7b, 0x3e, 0x79, 0xff, 0x11, 0xbf, 0x37, 0x1e, 0xcb, 0x3d,
  0x46, 0x11, 0xe1, 0x3d, 0x66, 0x43, 0x26, 0x3e, 0xc2, 0xba, 0xfd, 0xbc,
  0xbd, 0x39, 0xd3, 0x3e, 0xdf, 0xc8, 0x53, 0x3d, 0x36, 0x77, 0x95, 0xbc,
  0x88, 0xd9, 0xa6, 0x3e, 0x62, 0x14, 0x3e, 0xbe, 0x04, 0x86, 0x0e, 0x3f,
  0xac, 0x9b, 0xc0, 0xbd, 0x74, 0x41, 0x58, 0x3d, 0x94, 0x39, 0x3e, 0xbe,
  0x6c, 0x15, 0x15, 0x3e, 0xaf, 0x69, 0x16, 0xbe, 0x66, 0xa8, 0xb1, 0xbe,
  0xf3, 0xde, 0xad, 0x3e, 0xb8, 0x0e, 0x08, 0x3f, 0xc8, 0x7c, 0x0b, 0xbe,
  0x50, 0x4e, 0x2d, 0x3d, 0x32, 0xb5, 0x71, 0x3e, 0x9d, 0x98, 0x0c, 0xbd,
  0x44, 0x1c, 0xcd, 0xbe, 0x43, 0x87, 0xf9, 0x3d, 0xcd, 0x3f, 0x4f, 0xbe,
  0xe1, 0x75, 0x14, 0x3d, 0x46, 0x6e, 0x93, 0x3e, 0x21, 0xe4, 0xc8, 0x3d,
  0xa8, 0x8f, 0xe3, 0xbd, 0x36, 0x79, 0x40, 0x3e, 0x30, 0xe0, 0x96, 0xbd,
  0xd8, 0xf4, 0xfb, 0xbe, 0x87, 0x61, 0xdb, 0x3d, 0x16, 0xc5, 0x70, 0x3e,
  0xe0, 0x8b, 0xff, 0x3d, 0x54, 0x49, 0x2d, 0xbd, 0xcd, 0x5f, 0x05, 0xbe,
  0x83, 0x81, 0xc9, 0x3d, 0xaf, 0x96, 0x2f, 0xbf, 0x68, 0x7d, 0x51, 0x3d,
  0xfa, 0xbc, 0xf1, 0xbe, 0xec, 0xcd, 0x8a, 0xbe, 0xcb, 0x9b, 0x52, 0xbd,
  0x9e, 0xfb, 0xc8, 0x3e, 0xda, 0xf0, 0xc9, 0xbd, 0xb5, 0xca, 0x34, 0x3e,
  0xeb, 0xa6, 0xe0, 0xbe, 0xc5, 0xb5, 0x35, 0x3e, 0x5e, 0x6c, 0x81, 0x3e,
  0xff, 0xa5, 0xa5, 0x3e, 0xb0, 0x5e, 0x1a, 0xbc, 0xb2, 0x29, 0x64, 0x3e,
  0x1a, 0x6a, 0xc9, 0x3d, 0x50, 0xc5, 0x5d, 0x3c, 0x85, 0x04, 0x86, 0xbe,
  0x96, 0xff, 0xb1, 0x3d, 0x32, 0x8c, 0x3b, 0xbd, 0xa1, 0xb2, 0x02, 0x3d,
  0x2b, 0xbb, 0x54, 0x3d, 0xf1, 0x86, 0xf5, 0x3e, 0xef, 0xe9, 0xa0, 0xbd,
  0xdd, 0x32, 0x87, 0x3e, 0x7d, 0x33, 0x04, 0xbf, 0x66, 0x8c, 0x34, 0xbf,
  0x98, 0xc8, 0x9c, 0x3d, 0x53, 0xba, 0x14, 0xbe, 0x9f, 0x81, 0x14, 0xbd,
  0xad, 0x12, 0x8f, 0x3d, 0x51, 0x45, 0xb5, 0x3d, 0x0d, 0xb8, 0x33, 0x3d,
  0xe8, 0x47, 0xd2, 0xbd, 0x23, 0xc7, 0x83, 0x3e, 0xd6, 0xed, 0xa1, 0x3d,
  0xeb, 0xc6, 0xed, 0xbc, 0xf9, 0xa7, 0x9b, 0x3e, 0x1a, 0xe5, 0x61, 0xbd,
  0xdb, 0xc2, 0xfe, 0xbd, 0x02, 0xbf, 0x9e, 0xbd, 0x11, 0x41, 0x87, 0xbd,
  0x4e, 0x34, 0xc7, 0xbf, 0x11, 0xdf, 0xa4, 0x3e, 0x90, 0x50, 0xb0, 0xbd,
  0x8c, 0x9c, 0xcf, 0xbd, 0xf5, 0xf1, 0x83, 0x3e, 0x9d, 0x4f, 0x81, 0x3d,
  0x74, 0x18, 0x2d, 0xbe, 0x7a, 0x1c, 0x50, 0x3c, 0x5f, 0x1d, 0x60, 0xbd,
  0xc9, 0x03, 0xa3, 0x3e, 0xe6, 0xd3, 0x2c, 0xbf, 0xa6, 0x63, 0xfe, 0x3c,
  0xde, 0xbd, 0x65, 0xbe, 0xdc, 0xa9, 0x0a, 0xbf, 0xea, 0x02, 0xb9, 0xbd,
  0x7d, 0x59, 0x0f, 0xbe, 0x60, 0x63, 0x9f, 0x3c, 0xe9, 0x24, 0xd0, 0xbd,
  0x25, 0xb4, 0x09, 0xbe, 0x6d, 0xa5, 0xab, 0x3e, 0x63, 0x0f, 0xb2, 0x3b,
  0x3e, 0xa0, 0x14, 0xbf, 0x49, 0xf1, 0x7c, 0xbd, 0x8f, 0xa0, 0xc7, 0xbd,
  0xe4, 0x4d, 0xee, 0xbe, 0x4d, 0x53, 0xda, 0xbc, 0x0a, 0x87, 0xd3, 0x3d,
  0x15, 0xc9, 0x55, 0x3d, 0x71, 0x02, 0x55, 0xbe, 0xb4, 0x05, 0x62, 0xbe,
  0xe2, 0x1d, 0x7b, 0xbd, 0xc3, 0xff, 0x73, 0x3e, 0xf6, 0x27, 0x80, 0x3e,
  0x0d, 0x02, 0x06, 0xbf, 0x96, 0xd1, 0x13, 0xbe, 0x86, 0x84, 0xf8, 0xbc,
  0x4a, 0x64, 0x7d, 0x3d, 0x71, 0x6e, 0x89, 0xbf, 0x01, 0x6b, 0x09, 0x3d,
  0x9b, 0x61, 0xe3, 0xbd, 0xc8, 0xc1, 0x25, 0xbf, 0x50, 0x9f, 0x7d, 0x3e,
  0x25, 0x0e, 0x0b, 0xbe, 0xd5, 0x31, 0xd2, 0xbd, 0x31, 0x65, 0x4a, 0xbd,
  0xd1, 0xa4, 0xff, 0xbd, 0x04, 0x87, 0xb8, 0xbb, 0x1f, 0x26, 0x61, 0x3e,
  0xa3, 0x61, 0xf8, 0x3e, 0xed, 0x36, 0x28, 0xbf, 0x2d, 0x2e, 0xd6, 0x3c,
  0x8a, 0xcb, 0x5e, 0x3e, 0x7b, 0xd2, 0x00, 0x3e, 0xdc, 0x66, 0xe5, 0xbe,
  0xe2, 0xe0, 0x96, 0x3e, 0xc7, 0xaf, 0xa4, 0x3d, 0x27, 0x15, 0xef, 0xbe,
  0x4f, 0x8e, 0xd0, 0x3e, 0x27, 0x1a, 0xac, 0xbe, 0x88, 0xe4, 0xea, 0x3d,
  0x10, 0x3b, 0xb4, 0x3a, 0x93, 0x85, 0x4e, 0xbe, 0x50, 0xa5, 0x07, 0xbe,
  0xa4, 0x7c, 0x0e, 0x3f, 0x8f, 0x43, 0x84, 0x3e, 0x95, 0x2f, 0x42, 0xbf,
  0xa8, 0x8a, 0x87, 0xbd, 0xe9, 0x85, 0x84, 0x3e, 0x4c, 0x96, 0xb4, 0x3c,
  0xc1, 0x35, 0x6f, 0xbf, 0x92, 0xb7, 0x86, 0xbc, 0x94, 0x28, 0x2c, 0x3e,
  0x84, 0x85, 0xd0, 0xbe, 0xe4, 0x0b, 0x99, 0x3d, 0xd7, 0xac, 0x4d, 0x3c,
  0xef, 0x96, 0x12, 0xbe, 0x92, 0xfc, 0x37, 0x3e, 0xfe, 0xab, 0xff, 0xbd,
  0x36, 0x7a, 0x82, 0xbd, 0xd8, 0xa5, 0x68, 0x3d, 0x8a, 0x91, 0x8e, 0x3c,
  0x43, 0xe3, 0x7d, 0xbe, 0x7c, 0xc2, 0x16, 0xbe, 0x43, 0xcd, 0xaa, 0x3e,
  0xb1, 0x59, 0x1d, 0x3d, 0xda, 0xf1, 0x5f, 0xbe, 0x1b, 0x29, 0xac, 0x3e,
  0xe8, 0xe3, 0x9f, 0x3e, 0x0f, 0x6c, 0x74, 0xbe, 0xde, 0x0a, 0x0a, 0x3e,
  0x0d, 0xe1, 0x55, 0xbe, 0xe6, 0x34, 0x65, 0xbe, 0x09, 0x2a, 0xc3, 0x3d,
  0xec, 0x40, 0xf8, 0xbe, 0x0c, 0x30, 0x0a, 0xbe, 0x8b, 0x95, 0xe8, 0x3e,
  0x6e, 0x13, 0xe7, 0x3d, 0x24, 0x47, 0x09, 0xbf, 0x6f, 0x9d, 0x1c, 0xbe,
  0x21, 0x54, 0x05, 0x3e, 0x52, 0x30, 0x71, 0x3d, 0x86, 0x18, 0x6b, 0xbe,
  0x4e, 0xb2, 0xd1, 0xba, 0x1c, 0x54, 0xd8, 0x3d, 0x2f, 0x28, 0x68, 0xbe,
  0xfa, 0xaf, 0x9a, 0x3d, 0x23, 0xdf, 0x1c, 0xbe, 0x1f, 0x5b, 0x6d, 0xbd,
  0x8d, 0x0b, 0x17, 0xbd, 0x87, 0x68, 0x30, 0xbe, 0x3c, 0xfe, 0xf3, 0xbd,
  0xbd, 0x30, 0x12, 0x3e, 0x0b, 0xbc, 0x28, 0xbd, 0xf6, 0x0c, 0x35, 0xbe,
  0xad, 0x49, 0x11, 0x3e, 0x27, 0x50, 0x3c, 0x3e, 0x44, 0x74, 0xc1, 0x3d,
  0x3c, 0x04, 0x13, 0xbf, 0x9b, 0x90, 0x60, 0x3e, 0x34, 0x22, 0x9e, 0x3d,
  0x98, 0xb1, 0xe3, 0xbe, 0x17, 0x46, 0xa6, 0x3d, 0x21, 0xba, 0x9e, 0xbe,
  0xb5, 0xde, 0x29, 0xbe, 0x58, 0x40, 0x3a, 0x3e, 0xd5, 0x1d, 0xec, 0xbe,
  0x0a, 0xae, 0x79, 0xbd, 0x55, 0xc2, 0xb2, 0x3e, 0x84, 0x56, 0x36, 0x3e,
  0x91, 0x90, 0x30, 0xbf, 0x8a, 0x54, 0x99, 0x3d, 0x2f, 0xfd, 0xba, 0x3e,
  0x70, 0xfc, 0x85, 0xbd, 0xdf, 0x43, 0x86, 0xbe, 0xfe, 0xce, 0x8a, 0x3d,
  0xff, 0x9b, 0x0e, 0x3e, 0x7f, 0x01, 0x0d, 0xbe, 0x5c, 0x27, 0xcf, 0x3d,
  0xf1, 0xd0, 0x9d, 0xbd, 0xe2, 0x36, 0xac, 0xbc, 0x2b, 0x6e, 0x5a, 0xbd,
  0xbc, 0x2a, 0x9f, 0xbd, 0x94, 0xfa, 0x16, 0xbd, 0xb8, 0x3b, 0xbd, 0x3e,
  0x28, 0x93, 0xd4, 0xbd, 0xe8, 0xb5, 0xc5, 0xbe, 0x11, 0x6f, 0xfd, 0xbc,
  0x75, 0xbb, 0x03, 0x3e, 0x5f, 0x7b, 0xb5, 0x3d, 0x14, 0x7e, 0xe6, 0xbe,
  0x38, 0xb8, 0x3d, 0x3e, 0xaf, 0xd8, 0x2f, 0x3d, 0x11, 0xc4, 0x9d, 0xbe,
  0x2e, 0x0c, 0x40, 0x3d, 0x31, 0x45, 0x41, 0xbd, 0xa2, 0xc1, 0xa6, 0x3d,
  0x1d, 0xcc, 0xd5, 0xbd, 0x6f, 0x5c, 0x09, 0xbe, 0x48, 0xa2, 0x32, 0x3e,
  0xe6, 0x79, 0xba, 0x3e, 0x33, 0x2c, 0xa6, 0x3e, 0x6c, 0x1f, 0xef, 0xbe,
  0x78, 0xec, 0x0a, 0x3e, 0xa8, 0x1d, 0x4c, 0xbe, 0x40, 0xce, 0x24, 0xbd,
  0xe4, 0x04, 0xd6, 0xbe, 0x9f, 0x4a, 0xa9, 0x3e, 0xf7, 0xca, 0x07, 0x3e,
  0xfe, 0xea, 0x0a, 0xbe, 0x9e, 0xf9, 0x0f, 0x3d, 0x30, 0xb8, 0x64, 0x3e,
  0x56, 0x9b, 0x39, 0x3e, 0xd5, 0x6e, 0x44, 0xbd, 0x17, 0xf9, 0xc3, 0x3d,
  0x48, 0x92, 0x5d, 0xbd, 0xf3, 0xb0, 0xa3, 0x3e, 0x62, 0xcb, 0xda, 0x3d,
  0x95, 0x56, 0xf1, 0xbe, 0x2f, 0xfc, 0x9f, 0x3e, 0xec, 0x3d, 0x49, 0xbd,
  0xf7, 0x19, 0xd4, 0x3d, 0x9f, 0xdf, 0x62, 0xbf, 0x42, 0x34, 0xef, 0x3c,
  0x8a, 0xa4, 0xb2, 0xbc, 0x3f, 0x0d, 0x04, 0xbf, 0x6f, 0xa4, 0x5b, 0xbd,
  0xd3, 0x7f, 0x06, 0x3d, 0x97, 0xb8, 0xae, 0x3e, 0xf2, 0xaa, 0x8f, 0xbd,
  0xfd, 0x36, 0x63, 0xbe, 0xac, 0xd8, 0x5e, 0xbe, 0xb1, 0x3f, 0xca, 0x3e,
  0x16, 0x9a, 0xbd, 0x3e, 0x69, 0xc8, 0x83, 0xbe, 0xb7, 0x46, 0xbb, 0x3e,
  0x2d, 0x50, 0x86, 0x3e, 0x8f, 0x61, 0x65, 0xbd, 0x43, 0x8b, 0x25, 0xbf,
  0xa9, 0x6e, 0xa8, 0xbd, 0xfa, 0x0f, 0xa7, 0x3c, 0x5b, 0xcc, 0x1b, 0xbf,
  0x8d, 0xc2, 0x20, 0x3e, 0x54, 0xe2, 0x3b, 0xbe, 0xa3, 0x9d, 0x75, 0x3d,
  0x32, 0xca, 0xb0, 0xbd, 0x2c, 0x28, 0x1e, 0xbe, 0xf6, 0xef, 0x28, 0xbd,
  0x6e, 0x8c, 0x7c, 0x3e, 0xe2, 0x94, 0xbe, 0x3d, 0xbc, 0x8b, 0x33, 0xbe,
  0x73, 0x56, 0x8f, 0x3e, 0xee, 0x24, 0x82, 0x3e, 0x93, 0x57, 0x78, 0xbd,
  0xa3, 0xb9, 0xd4, 0xbe, 0xc7, 0x0e, 0x95, 0xbe, 0x85, 0x4c, 0x4d, 0x3e,
  0x29, 0x91, 0xb8, 0xbe, 0x93, 0xcd, 0x6c, 0x3e, 0x9a, 0xf6, 0x90, 0x3a,
  0x71, 0xdc, 0x9c, 0x3e, 0xdc, 0x04, 0xcd, 0x3d, 0x77, 0x09, 0x5a, 0xbf,
  0x00, 0xbe, 0xbe, 0x3e, 0x37, 0x0c, 0xd6, 0x3c, 0x57, 0x9b, 0x52, 0xbe,
  0xfe, 0x43, 0x2a, 0xbe, 0x1d, 0x02, 0x02, 0x3f, 0x8d, 0xe0, 0xc9, 0xbe,
  0x72, 0x76, 0x52, 0xbd, 0x9f, 0x9c, 0x9c, 0xbd, 0xb2, 0xf0, 0xeb, 0xbd,
  0x0d, 0x32, 0x4d, 0x3e, 0x02, 0x1c, 0x49, 0xbc, 0x7f, 0xeb, 0xeb, 0x3e,
  0x66, 0x35, 0x15, 0x3e, 0x81, 0x52, 0xbe, 0xbc, 0x7b, 0x2e, 0x20, 0x3e,
  0x4b, 0x58, 0xb7, 0xbe, 0x2a, 0x4c, 0x17, 0x3c, 0x4c, 0xa6, 0x6d, 0x3e,
  0x26, 0xc3, 0xd8, 0xbe, 0xe5, 0x51, 0x2e, 0x3e, 0x0e, 0xee, 0x25, 0xbe,
  0x34, 0x19, 0x2c, 0x3e, 0x91, 0x0e, 0xab, 0xbe, 0xc8, 0x13, 0xcf, 0x3e,
  0xcd, 0x43, 0xa5, 0x3c, 0x58, 0x15, 0xd3, 0xbd, 0x75, 0xba, 0x21, 0xbe,
  0xc9, 0x31, 0x9b, 0xbe, 0x4d, 0x9b, 0xeb, 0xbe, 0x9d, 0xf8, 0xc1, 0x3e,
  0x31, 0xab, 0x48, 0xbd, 0xe7, 0xca, 0xaf, 0xbe, 0x8f, 0xa0, 0x0b, 0xbe,
  0x09, 0xda, 0x4b, 0x3e, 0xfc, 0xac, 0x4f, 0xbf, 0x21, 0xd9, 0xc3, 0xbe,
  0xe1, 0xbe, 0x31, 0x3e, 0x0a, 0x80, 0x14, 0x3e, 0x82, 0xcf, 0xcf, 0xbe,
  0x64, 0x94, 0x9f, 0xbd, 0x79, 0x22, 0xa7, 0xbe, 0x7b, 0x5c, 0xb5, 0x3d,
  0xbf, 0x49, 0x2b, 0x3e, 0x72, 0x42, 0x85, 0xbe, 0x52, 0x02, 0x2e, 0xbf,
  0xf3, 0xcc, 0xa3, 0xbc, 0x36, 0x19, 0x2d, 0xbe, 0x65, 0x1e, 0x08, 0xbf,
  0x21, 0x21, 0xc7, 0x3d, 0xbb, 0x86, 0x27, 0xbe, 0x2a, 0x05, 0x3b, 0xbe,
  0xc4, 0x27, 0xe1, 0xbd, 0x84, 0xe9, 0x92, 0x3c, 0xc5, 0x41, 0x5b, 0x3e,
  0x81, 0xee, 0x2b, 0xbe, 0x9c, 0x9d, 0xb9, 0xbe, 0x61, 0x23, 0x0f, 0xbf,
  0xa7, 0xca, 0xf8, 0x3d, 0x41, 0xb1, 0xc6, 0xbe, 0x3f, 0xf9, 0x56, 0xbe,
  0x02, 0x46, 0x10, 0x3f, 0x65, 0x57, 0x1a, 0xbd, 0x88, 0xc6, 0x20, 0xbe,
  0x4f, 0x0e, 0x5b, 0xbe, 0xab, 0x5b, 0x52, 0x3d, 0xc0, 0x03, 0x47, 0xbf,
  0x6b, 0x37, 0xb6, 0xbe, 0x88, 0x37, 0xa5, 0x3e, 0xa8, 0xfd, 0x24, 0x3e,
  0x0a, 0x68, 0x8b, 0x3e, 0x31, 0x85, 0xf8, 0xbe, 0x6d, 0x0a, 0xae, 0xbc,
  0x55, 0xde, 0x9f, 0xbe, 0x20, 0x7f, 0x92, 0x3e, 0xdb, 0x58, 0xb9, 0xbe,
  0xe5, 0x41, 0x24, 0xbc, 0xc9, 0x91, 0x10, 0xbf, 0xf7, 0x15, 0x26, 0x3d,
  0xb4, 0x0a, 0x06, 0xbf, 0xea, 0x59, 0x05, 0xbf, 0x5b, 0x1c, 0x0b, 0x3e,
  0x8a, 0x3b, 0x3d, 0xbf, 0x4d, 0xbc, 0xc0, 0x3e, 0xc0, 0xb3, 0x86, 0xbc,
  0x4e, 0xce, 0x09, 0xbe, 0x91, 0xb6, 0x6b, 0x3e, 0x41, 0x8c, 0xaf, 0xbe,
  0x33, 0x6e, 0x79, 0x3e, 0x90, 0x92, 0x5d, 0x3e, 0xd0, 0x6e, 0x24, 0xbc,
  0x1c, 0x04, 0xe1, 0xbe, 0x3b, 0x0c, 0xea, 0xbd, 0xf2, 0xec, 0xb6, 0xbd,
  0x57, 0x9d, 0xab, 0xbe, 0x1a, 0x41, 0x46, 0x3d, 0x89, 0x6b, 0x95, 0xbe,
  0xdf, 0x67, 0x2c, 0x3d, 0xe7, 0xb6, 0x3e, 0xbe, 0x80, 0xa0, 0xd9, 0xbe,
  0x60, 0x85, 0xd8, 0x3c, 0xc5, 0xde, 0xcd, 0x3d, 0x16, 0x52, 0x58, 0xbe,
  0x25, 0x7f, 0x22, 0xbf, 0xb1, 0x30, 0xa3, 0x3d, 0xaa, 0xd6, 0x49, 0x3d,
  0x04, 0x57, 0x8a, 0xbe, 0xd5, 0x85, 0xce, 0x3e, 0xc3, 0x6f, 0x64, 0xbe,
  0xaa, 0xd2, 0x82, 0x3e, 0xa2, 0x20, 0x7e, 0x3e, 0xb8, 0xe4, 0x92, 0x3d,
  0xcc, 0x35, 0x36, 0xbe, 0xe7, 0x8b, 0x4a, 0x3e, 0xe6, 0xe6, 0xeb, 0x3c,
  0xdd, 0x08, 0xed, 0xbe, 0xc9, 0xdb, 0x16, 0xbe, 0x78, 0xe8, 0x35, 0xbe,
  0x8d, 0x85, 0x08, 0xbf, 0xd2, 0x4d, 0x1d, 0xbf, 0x3b, 0x30, 0x87, 0x3e,
  0x18, 0xa9, 0x23, 0xbe, 0x23, 0x39, 0xf9, 0x3e, 0x49, 0x2b, 0x86, 0x3e,
  0xa2, 0x6b, 0x55, 0xbe, 0xe0, 0x8b, 0xc7, 0x3e, 0x88, 0x79, 0x19, 0xbe,
  0xfb, 0x0e, 0x27, 0x3c, 0x25, 0x07, 0xa0, 0xbd, 0x5e, 0x79, 0x95, 0x3d,
  0x3d, 0x8e, 0x2c, 0x3d, 0xae, 0x3e, 0x33, 0x3d, 0xe1, 0x5e, 0xb4, 0x3e,
  0x02, 0xb3, 0x6e, 0x3e, 0x84, 0x70, 0xb8, 0xbe, 0x09, 0xa6, 0xa7, 0xbe,
  0xe4, 0x21, 0x81, 0xbe, 0x4f, 0xee, 0xb6, 0xbe, 0x23, 0xc6, 0x7b, 0x3e,
  0x45, 0x75, 0x30, 0xbe, 0xd8, 0x36, 0x3e, 0xbf, 0x39, 0xac, 0x95, 0xbd,
  0x2e, 0x68, 0x9d, 0xbe, 0xcb, 0x26, 0x92, 0x3d, 0x74, 0x46, 0x04, 0xbe,
  0x9e, 0x13, 0x6b, 0x3e, 0x90, 0x66, 0x89, 0xbf, 0x17, 0x8a, 0x67, 0x3e,
  0x9f, 0x37, 0x20, 0x3e, 0x76, 0xf6, 0xa6, 0x3e, 0x17, 0x8f, 0x49, 0xbe,
  0x88, 0x37, 0xad, 0x3d, 0xb0, 0x74, 0xa9, 0xbc, 0x8b, 0x89, 0x29, 0x3e,
  0xe4, 0x9a, 0xac, 0xbe, 0xa2, 0xcf, 0xb3, 0x3e, 0x68, 0xce, 0xeb, 0x3e,
  0x72, 0x6f, 0x49, 0xbe, 0x4b, 0x5f, 0xbe, 0xbe, 0x83, 0x9a, 0x7a, 0x3e,
  0x46, 0xd4, 0xad, 0xbe, 0x91, 0xe8, 0x80, 0xbd, 0x51, 0xf0, 0xce, 0x3d,
  0x80, 0xd6, 0x5c, 0x3d, 0x14, 0x02, 0x8e, 0xbd, 0x54, 0xca, 0x85, 0xbe,
  0x21, 0x7c, 0x6c, 0xbe, 0x42, 0xd9, 0xb1, 0x3d, 0xde, 0x83, 0x40, 0xbe,
  0xf5, 0xf4, 0x4f, 0xbe, 0x9a, 0xc8, 0x04, 0xbe, 0x72, 0x58, 0x3e, 0x3f,
  0xa6, 0x6f, 0xeb, 0x3d, 0x6b, 0xe1, 0x18, 0xbe, 0xa6, 0x80, 0xd4, 0xbe,
  0x59, 0x41, 0xa5, 0x3e, 0xea, 0x1e, 0x39, 0xbe, 0x36, 0x9a, 0x5c, 0xbd,
  0x3d, 0x80, 0xa7, 0x3e, 0x29, 0x75, 0xdd, 0x3d, 0x7e, 0xe0, 0x03, 0x3e,
  0x9b, 0xaf, 0xe4, 0xbb, 0xf9, 0xc1, 0xa7, 0xbe, 0x11, 0x73, 0x1f, 0x3e,
  0xf1, 0xda, 0x82, 0x3e, 0xab, 0xa2, 0x0f, 0x3d, 0xa7, 0xdd, 0x7f, 0x3d,
  0x29, 0x01, 0x15, 0x3f, 0x78, 0x3d, 0x97, 0x3e, 0x17, 0xba, 0xf0, 0xbe,
  0x57, 0xef, 0xaa, 0x3d, 0xae, 0x1b, 0x8e, 0x3e, 0x3a, 0x03, 0xa9, 0xbe,
  0xb2, 0x15, 0x58, 0xbd, 0x25, 0x67, 0xae, 0x3e, 0xb0, 0xf8, 0xb3, 0x3e,
  0xef, 0x27, 0x4a, 0x39, 0x45, 0x19, 0x82, 0xbe, 0x81, 0x22, 0xf0, 0x3d,
  0xf1, 0x46, 0x8e, 0x3e, 0x38, 0x65, 0x12, 0xbe, 0xfd, 0xf3, 0x2c, 0xbd,
  0x28, 0x53, 0x94, 0xbd, 0x8d, 0xaa, 0xc9, 0x3e, 0xef, 0x13, 0xcc, 0x3e,
  0xb6, 0xfd, 0x91, 0x3e, 0x15, 0x97, 0x87, 0x3e, 0x63, 0x3d, 0xe3, 0x3d,
  0x34, 0x9d, 0x91, 0xbe, 0x71, 0x24, 0x00, 0xbf, 0x06, 0x05, 0x0e, 0x3f,
  0x21, 0x85, 0x21, 0x3e, 0x62, 0xd7, 0xb5, 0x3d, 0xd5, 0x1a, 0xc7, 0x3e,
  0x32, 0x53, 0xd2, 0x3d, 0xd1, 0x47, 0xd6, 0x3e, 0xd0, 0xe6, 0xbd, 0xbc,
  0x54, 0x90, 0x84, 0x3e, 0x05, 0xda, 0x1f, 0xbe, 0x36, 0xa4, 0xce, 0x3d,
  0xa1, 0xe9, 0xab, 0x3e, 0x60, 0xaa, 0x36, 0xbe, 0xfb, 0xc2, 0xd5, 0x3e,
  0xa4, 0xb7, 0x7d, 0xbc, 0x84, 0x8f, 0xe8, 0x3c, 0xeb, 0x72, 0xab, 0xbe,
  0xb3, 0x7e, 0xd5, 0x3d, 0xba, 0x46, 0xa7, 0xbe, 0x95, 0x73, 0xa0, 0x3e,
  0xdc, 0x3e, 0x81, 0x3e, 0xca, 0xc9, 0xec, 0xbd, 0x94, 0x2c, 0xe3, 0x3e,
  0xe8, 0xc8, 0xb0, 0xbd, 0x63, 0xde, 0xc6, 0x3e, 0x98, 0xdf, 0x2c, 0x3d,
  0x48, 0xf5, 0x90, 0x3d, 0xc9, 0x1f, 0xbd, 0x3e, 0xa4, 0x86, 0xc2, 0x3d,
  0x6a, 0xec, 0x04, 0xbf, 0x69, 0x2a, 0x93, 0x3e, 0xe3, 0xf3, 0xa0, 0x3d,
  0x57, 0xdc, 0xe7, 0x3e, 0x39, 0x20, 0x04, 0x3f, 0x33, 0x71, 0x8f, 0x3e,
  0xd1, 0x0b, 0x0c, 0x3e, 0xf0, 0x19, 0x57, 0x3f, 0xb9, 0x4d, 0x2c, 0xbe,
  0xd2, 0x89, 0xb2, 0x3d, 0xb2, 0xea, 0xf0, 0x3e, 0x7b, 0x84, 0xac, 0x3d,
  0xa6, 0x33, 0x2b, 0x3e, 0x86, 0xc4, 0x27, 0x3f, 0x5a, 0xb3, 0x2d, 0x3d,
  0x79, 0xe7, 0x8d, 0x3e, 0x25, 0x05, 0x75, 0xbf, 0x2f, 0x2c, 0x90, 0x3e,
  0xe9, 0x5b, 0x1c, 0xbd, 0x88, 0x78, 0x9b, 0x3e, 0xbc, 0xa4, 0x9c, 0xbe,
  0x87, 0x09, 0x06, 0xbe, 0xb7, 0x36, 0xca, 0x3e, 0x30, 0x4d, 0x2d, 0x3f,
  0x3e, 0x19, 0xcc, 0xbd, 0x0e, 0x57, 0x87, 0xbd, 0xbb, 0xf5, 0xc7, 0x3d,
  0x4c, 0xea, 0x0d, 0x3e, 0x63, 0xb9, 0x2c, 0xbe, 0x8c, 0xdf, 0xea, 0x3e,
  0xd8, 0xfa, 0x08, 0xbe, 0x2a, 0x9d, 0x2c, 0x3f, 0x42, 0x7b, 0x69, 0xbd,
  0x65, 0x4c, 0x8e, 0x3e, 0xc9, 0x44, 0x3b, 0x3d, 0xdc, 0x31, 0xa7, 0xbd,
  0xb0, 0x06, 0x7a, 0xbe, 0xcc, 0x19, 0x8e, 0x3e, 0x91, 0x1c, 0x25, 0x3e,
  0x40, 0x1a, 0x13, 0x3f, 0xf2, 0x31, 0xb3, 0xbe, 0x0d, 0x77, 0x6e, 0xbd,
  0x33, 0x70, 0xeb, 0xbc, 0x02, 0xbb, 0xcc, 0xbd, 0xa1, 0xa2, 0xe6, 0xbd,
  0x88, 0x28, 0x80, 0x3e, 0xfc, 0x80, 0xec, 0xbe, 0x1d, 0x78, 0x01, 0x3f,
  0x43, 0x7e, 0xae, 0xbd, 0x54, 0x98, 0x79, 0x3e, 0x55, 0x9c, 0x33, 0x3d,
  0xb0, 0xb6, 0xc2, 0xbe, 0x77, 0x2c, 0x2c, 0xbe, 0x74, 0x66, 0x5a, 0xbe,
  0x92, 0xcc, 0xaa, 0xbd, 0x07, 0x0a, 0x2d, 0x3f, 0x0d, 0xca, 0xde, 0xbd,
  0x85, 0xce, 0x91, 0x3d, 0x34, 0xac, 0x54, 0xbd, 0x6e, 0x64, 0x5d, 0xbe,
  0xe2, 0xc6, 0xc5, 0xbe, 0x70, 0xe8, 0xbd, 0x3e, 0xa2, 0xb1, 0x48, 0xbe,
  0x63, 0xf6, 0x82, 0x3f, 0x57, 0xb6, 0x04, 0xbe, 0xaa, 0x2e, 0x2b, 0x3e,
  0xc1, 0x5c, 0x9c, 0x3c, 0x95, 0x5f, 0x6b, 0xbf, 0xf5, 0x8e, 0x02, 0xbe,
  0xcd, 0x0a, 0x39, 0xbe, 0x99, 0x37, 0x91, 0xbc, 0x46, 0x33, 0xaf, 0x3e,
  0x28, 0xdc, 0x56, 0xbe, 0x89, 0x67, 0x3e, 0x3d, 0x90, 0xa1, 0x4a, 0xbd,
  0xc1, 0x41, 0x2d, 0xbf, 0x8e, 0xc9, 0x62, 0xbe, 0x2a, 0x12, 0xb2, 0x3d,
  0x60, 0x75, 0xf9, 0xbe, 0x97, 0x73, 0x44, 0x3e, 0x90, 0x84, 0x09, 0x3e,
  0xdf, 0xdb, 0xf1, 0x3b, 0xf8, 0x68, 0x8c, 0x3b, 0x84, 0x2b, 0xd0, 0xbe,
  0x5e, 0xbf, 0x7e, 0xbc, 0x3a, 0xb8, 0x89, 0xbe, 0xba, 0xa0, 0x82, 0x3e,
  0x64, 0xfb, 0xd0, 0xbe, 0x5a, 0xca, 0x6a, 0xbd, 0x8c, 0xc2, 0x03, 0xbd,
  0x60, 0xcd, 0x34, 0x3d, 0xb0, 0x78, 0x3b, 0xbe, 0x84, 0x49, 0x80, 0xbe,
  0x10, 0xe8, 0xf1, 0x3e, 0x80, 0x66, 0xed, 0x3d, 0x91, 0xbf, 0x00, 0x3f,
  0x2d, 0x5d, 0x31, 0x3d, 0x8f, 0x95, 0xcc, 0x3c, 0x1c, 0x99, 0x4f, 0x3c,
  0x21, 0x1d, 0x0e, 0xbf, 0x51, 0x9b, 0xf3, 0xbc, 0xe5, 0xcd, 0x3a, 0x3e,
  0x62, 0xdc, 0x69, 0x3d, 0xfe, 0x89, 0xca, 0xbe, 0xe1, 0xfd, 0x14, 0xbe,
  0x5e, 0xe6, 0xcd, 0xbb, 0xf3, 0x95, 0xf4, 0xbc, 0xe0, 0x76, 0xc3, 0xbe,
  0x52, 0x5f, 0xfc, 0xbd, 0xd2, 0x5c, 0x04, 0x3f, 0x35, 0x85, 0x43, 0x3c,
  0xd5, 0x07, 0x92, 0x3e, 0x9b, 0x75, 0x6c, 0x3d, 0xc9, 0x30, 0x42, 0x3e,
  0x23, 0x49, 0x7e, 0xbd, 0x05, 0xe0, 0x5b, 0xbf, 0x29, 0x00, 0x18, 0xbd,
  0x7a, 0xc1, 0xba, 0x3e, 0x00, 0x88, 0xcb, 0x3d, 0xcc, 0x3f, 0xe3, 0xbe,
  0x90, 0x52, 0x73, 0xbd, 0x6f, 0x18, 0x00, 0x3d, 0x5e, 0xe8, 0x57, 0x3e,
  0xf1, 0x2e, 0x3c, 0xbc, 0x5d, 0x3d, 0x63, 0xbe, 0xa7, 0xcb, 0xce, 0x3e,
  0x70, 0x26, 0x0e, 0xbe, 0x05, 0x1b, 0x52, 0x3f, 0x4b, 0xbd, 0xde, 0xbd,
  0x88, 0x2e, 0x14, 0x3e, 0x46, 0xc5, 0xe2, 0x3c, 0xae, 0xef, 0x1f, 0xbf,
  0xd2, 0x93, 0x3c, 0x3d, 0x9a, 0x3a, 0xf3, 0x3d, 0x4e, 0xc0, 0x23, 0x3e,
  0xa1, 0xa3, 0x51, 0x3e, 0x9a, 0xe3, 0xae, 0xbd, 0xa0, 0xed, 0xe1, 0x3d,
  0xb3, 0xa0, 0xd2, 0xbb, 0x1b, 0x25, 0xe0, 0xbc, 0x27, 0x56, 0xff, 0xbe,
  0x34, 0x41, 0x22, 0x3e, 0xc2, 0x58, 0xa7, 0xbd, 0x79, 0x50, 0x92, 0x3e,
  0x7d, 0x95, 0xd1, 0xbd, 0xd9, 0x70, 0x68, 0x3e, 0x44, 0xf3, 0x24, 0x3c,
  0xf9, 0x9b, 0x49, 0x3d, 0x46, 0x59, 0x6e, 0xbc, 0x4f, 0x7b, 0x24, 0xbe,
  0x03, 0x26, 0x73, 0x3e, 0xad, 0xc0, 0x13, 0xbf, 0xc3, 0x03, 0x5c, 0xbe,
  0x5c, 0x03, 0x04, 0x3e, 0x7e, 0xfa, 0x48, 0x3e, 0x0d, 0x04, 0xc2, 0x3c,
  0x40, 0x3f, 0x2d, 0xbd, 0xcd, 0x6f, 0x7a, 0x3e, 0xc5, 0x25, 0x31, 0x3e,
  0x0d, 0xd1, 0xdb, 0xbd, 0xbc, 0x3b, 0x4a, 0x3e, 0xcc, 0x2f, 0xba, 0x3b,
  0xba, 0x52, 0xb0, 0x3c, 0xb5, 0x5d, 0x49, 0xbe, 0x8c, 0xde, 0x37, 0xbe,
  0xf5, 0xf4, 0x15, 0xbf, 0x38, 0x2e, 0x80, 0xbe, 0x4f, 0x60, 0xba, 0xbd,
  0x59, 0xbe, 0x16, 0xbf, 0xa0, 0x02, 0x16, 0xbd, 0x30, 0xaa, 0x4d, 0x3d,
  0x08, 0x21, 0xe7, 0xbc, 0xc3, 0x45, 0x0c, 0xbf, 0x71, 0x81, 0x20, 0x3f,
  0xd6, 0xea, 0x73, 0xbe, 0xc5, 0xbb, 0x66, 0x3e, 0x70, 0x49, 0xdc, 0x3d,
  0x08, 0x7a, 0xe6, 0xbd, 0x34, 0xd2, 0x52, 0x3b, 0x45, 0x30, 0x35, 0xbf,
  0x1a, 0x99, 0x8d, 0xbe, 0x55, 0x0b, 0x0f, 0xbf, 0xc5, 0xf8, 0xba, 0xbe,
  0x67, 0x85, 0x59, 0xbf, 0xcf, 0x65, 0xbd, 0xbe, 0x9f, 0xf8, 0xa1, 0x3d,
  0x7b, 0x00, 0x49, 0x3e, 0x16, 0x64, 0xfd, 0xbe, 0xb7, 0xf3, 0x99, 0xbe,
  0x67, 0x47, 0x6d, 0x3e, 0x1b, 0x43, 0x12, 0x3c, 0xf2, 0x33, 0x0c, 0x3e,
  0x99, 0xd0, 0x2d, 0xbe, 0xb5, 0xea, 0xd4, 0xbd, 0x7f, 0x78, 0x0a, 0xbd,
  0x48, 0x7d, 0x1c, 0xbf, 0x9d, 0x26, 0x99, 0xbe, 0xb8, 0x60, 0x5c, 0x3d,
  0xb3, 0xe5, 0x9d, 0xbe, 0x66, 0x80, 0xfa, 0xbe, 0x7e, 0x8b, 0xaa, 0xbd,
  0x95, 0xf5, 0x22, 0x3d, 0xee, 0x53, 0xc8, 0xbe, 0x9b, 0x9d, 0x30, 0xbf,
  0x57, 0xbe, 0xa0, 0x3d, 0x88, 0x87, 0x61, 0xbf, 0x7a, 0x4e, 0x43, 0x3d,
  0x46, 0xe4, 0xe0, 0xbf, 0xb3, 0x1a, 0x4c, 0xbe, 0xc6, 0xe0, 0xf7, 0xbb,
  0xd7, 0xc4, 0x8e, 0x3c, 0xea, 0xe8, 0x91, 0xbe, 0xe4, 0xbb, 0xaa, 0xbd,
  0x3f, 0x51, 0xd1, 0xbe, 0x62, 0x79, 0x81, 0xbf, 0x34, 0x39, 0x4b, 0xbd,
  0xd1, 0x4e, 0x8c, 0xbd, 0x7a, 0x21, 0xc1, 0x3d, 0xda, 0x43, 0x0b, 0xbe,
  0xfd, 0x80, 0xec, 0xbc, 0xfb, 0xd6, 0xcd, 0xbb, 0x2d, 0x9d, 0xfa, 0xbd,
  0x0e, 0x63, 0x0a, 0xbe, 0xb2, 0xc8, 0x88, 0xbd, 0x96, 0x0e, 0xf8, 0xbd,
  0x76, 0x89, 0x79, 0x3e, 0x20, 0x0a, 0x97, 0xbe, 0xca, 0x02, 0x6c, 0x3d,
  0xe1, 0xcb, 0xf5, 0x3d, 0x80, 0x59, 0x26, 0xbf, 0x16, 0x46, 0x57, 0x3c,
  0x37, 0x7b, 0x5d, 0xbe, 0xaa, 0xb0, 0x12, 0xbd, 0x70, 0x96, 0xc6, 0xbd,
  0x6e, 0x52, 0x0f, 0x3f, 0x6c, 0x9c, 0x98, 0xbe, 0xa8, 0xec, 0xd7, 0xbd,
  0xe7, 0xe0, 0x6f, 0x3e, 0x75, 0xfb, 0xd3, 0xbd, 0x6f, 0xac, 0x9a, 0x3e,
  0x17, 0xe3, 0xff, 0xbc, 0xf8, 0xdc, 0x42, 0xbd, 0x2a, 0xc7, 0x5b, 0xbd,
  0x93, 0x2c, 0x08, 0xbe, 0x6d, 0x7d, 0xa4, 0xbe, 0x8a, 0xab, 0xd8, 0xbe,
  0x51, 0x8e, 0x8e, 0x3e, 0xc2, 0x1c, 0xa6, 0xbd, 0xe0, 0xb6, 0x95, 0xbd,
  0x95, 0x47, 0x91, 0x3c, 0x82, 0x5e, 0xa0, 0x3e, 0x0a, 0xa8, 0x85, 0xbb,
  0x53, 0x3f, 0x1c, 0x3d, 0x51, 0x65, 0x8f, 0x3e, 0x46, 0xe0, 0x86, 0xbe,
  0x7a, 0xfb, 0xeb, 0x3e, 0x6b, 0x07, 0x94, 0x3e, 0x49, 0xaf, 0x10, 0xbb,
  0x7a, 0xca, 0x1b, 0x3c, 0x23, 0x0a, 0x39, 0xbe, 0x5b, 0x8f, 0xa8, 0xbe,
  0x5c, 0x61, 0xd4, 0xbe, 0x39, 0xb5, 0xde, 0x3e, 0x89, 0xa1, 0xa4, 0x3e,
  0x77, 0xe0, 0xda, 0xbd, 0x1f, 0x2e, 0x0d, 0x3e, 0x71, 0xa4, 0xe1, 0xbd,
  0xa3, 0x8c, 0x2b, 0x3d, 0x9e, 0x69, 0x15, 0xbe, 0xf6, 0x57, 0x3f, 0x3e,
  0x79, 0x9b, 0x5e, 0x3c, 0x9c, 0x91, 0x04, 0xbe, 0x8a, 0xb1, 0x5e, 0xbe,
  0x87, 0x91, 0x18, 0x3e, 0x80, 0x44, 0xb3, 0xbd, 0x99, 0x08, 0x25, 0x3d,
  0x4f, 0x47, 0x05, 0x3e, 0x8b, 0x85, 0xae, 0xbe, 0xa7, 0x17, 0x5a, 0x3e,
  0xbb, 0x34, 0xbf, 0xbd, 0xbc, 0xb8, 0x6c, 0xbe, 0x4a, 0x34, 0x94, 0x3d,
  0x70, 0x33, 0xf0, 0x3d, 0xa8, 0x62, 0x2f, 0xbf, 0x17, 0x82, 0x0b, 0xbe,
  0x89, 0x66, 0x07, 0x3e, 0xdf, 0x2d, 0x38, 0x3e, 0xca, 0x7e, 0x79, 0x3e,
  0xe0, 0x51, 0xf9, 0xbe, 0xd5, 0xec, 0x6f, 0x3e, 0xbe, 0xee, 0x8d, 0xbe,
  0xea, 0x0b, 0x7b, 0xbd, 0x3d, 0xc8, 0x02, 0x3e, 0x0e, 0xf7, 0xbc, 0xbe,
  0xbb, 0xf7, 0xda, 0xbe, 0x9d, 0x34, 0x04, 0xbf, 0xea, 0x51, 0xc9, 0x3d,
  0x18, 0xa4, 0x8d, 0xbc, 0x4e, 0x17, 0x86, 0x3e, 0x5c, 0x33, 0x14, 0xbe,
  0xa9, 0x99, 0xd3, 0x3e, 0xba, 0x07, 0xf9, 0x3e, 0x7d, 0x83, 0x9c, 0xbc,
  0x0e, 0x28, 0x52, 0x3e, 0xaa, 0xc2, 0xf6, 0x3a, 0x34, 0x07, 0xa9, 0xbe,
  0x14, 0x7d, 0x21, 0xbe, 0xb3, 0x45, 0xbe, 0xbb, 0x27, 0xb3, 0xd9, 0xbc,
  0x91, 0x24, 0xa1, 0xbf, 0x3d, 0xb0, 0xcf, 0xbe, 0x0f, 0x2e, 0x84, 0xbd,
  0x2a, 0x1d, 0x20, 0xbd, 0x3f, 0x0d, 0x57, 0x3d, 0xba, 0xdd, 0xf5, 0x3d,
  0x65, 0x46, 0x29, 0xbf, 0xcf, 0x74, 0x25, 0x3e, 0xcc, 0x90, 0x64, 0x3e,
  0x01, 0xe4, 0x30, 0xbd, 0x07, 0xec, 0x54, 0x3d, 0x63, 0x69, 0x83, 0x3e,
  0x69, 0x47, 0xe3, 0xbe, 0x41, 0x20, 0xc0, 0xbe, 0xdf, 0xf1, 0xf3, 0xbc,
  0x59, 0xd3, 0xd2, 0xbe, 0x94, 0x56, 0xae, 0xbe, 0x7b, 0x0e, 0x68, 0xbe,
  0x1a, 0x30, 0x7e, 0x3d, 0x73, 0x71, 0x03, 0xbf, 0xb0, 0x2b, 0x0f, 0xbe,
  0x7a, 0xaa, 0x07, 0xbf, 0x23, 0x16, 0x4a, 0xbe, 0x25, 0xfe, 0x97, 0xbd,
  0x13, 0x98, 0x07, 0xbf, 0x8c, 0x49, 0x12, 0xbe, 0x6d, 0x2b, 0x7e, 0xbf,
  0x9d, 0xac, 0x4b, 0x3e, 0x31, 0xe7, 0x48, 0xbb, 0x1a, 0xd1, 0x28, 0xbe,
  0x19, 0x4f, 0xf3, 0x3c, 0x12, 0x5c, 0xb4, 0xbe, 0xe2, 0x08, 0x64, 0x3e,
  0xf2, 0xbb, 0x02, 0x3f, 0x39, 0x55, 0x33, 0x3f, 0xd4, 0xc5, 0x46, 0xbe,
  0x9a, 0x3e, 0x49, 0xbd, 0x64, 0x38, 0x11, 0xbe, 0x1e, 0xb8, 0x86, 0xbe,
  0xc5, 0x83, 0x49, 0xbe, 0x22, 0x65, 0xe6, 0x3d, 0xe2, 0x6c, 0x2c, 0xbe,
  0x69, 0x9d, 0x25, 0xbf, 0x21, 0x6c, 0x5d, 0x3d, 0x83, 0x00, 0x9a, 0xbb,
  0x9b, 0x6a, 0x41, 0xbe, 0x89, 0x57, 0x7d, 0x3e, 0xaf, 0xe2, 0xff, 0xbd,
  0xef, 0xb5, 0xb2, 0xbe, 0x30, 0x7d, 0xf5, 0xbd, 0xb4, 0x71, 0x00, 0x3d,
  0x7a, 0xc9, 0x98, 0xbe, 0x60, 0xef, 0x6c, 0xbd, 0xac, 0x67, 0xf1, 0x3d,
  0x40, 0xeb, 0xc5, 0xbe, 0x89, 0xdc, 0xa5, 0x3e, 0xa5, 0xb1, 0xaf, 0x3e,
  0xb2, 0xeb, 0x77, 0xbd, 0x3d, 0x48, 0xf3, 0x3e, 0xd1, 0x26, 0xd4, 0x3e,
  0x0b, 0xfa, 0x07, 0x3e, 0x91, 0x8e, 0x49, 0xbe, 0x90, 0x83, 0x2b, 0x3e,
  0x48, 0x4a, 0x89, 0xbe, 0x23, 0xf7, 0x85, 0xbe, 0xc1, 0xd9, 0x33, 0x3e,
  0x1c, 0xf7, 0x70, 0x3e, 0x73, 0x58, 0x16, 0xbe, 0xa5, 0x17, 0xb9, 0x3c,
  0xf8, 0x42, 0xff, 0x3d, 0x6e, 0x6e, 0x2d, 0xbe, 0x42, 0x18, 0xa3, 0x3c,
  0x95, 0x79, 0x0d, 0x3f, 0xcd, 0xbd, 0x22, 0xbd, 0xb7, 0xb2, 0x29, 0x3f,
  0x85, 0xfd, 0x88, 0x3e, 0xf0, 0x7e, 0x9c, 0x3d, 0x7c, 0xe6, 0xa3, 0xbd,
  0x6e, 0xf9, 0x8f, 0xbc, 0x7a, 0x2e, 0x8a, 0xbe, 0x6d, 0x13, 0xb9, 0xbd,
  0xb2, 0x9e, 0x5d, 0x3e, 0x23, 0xa1, 0x98, 0x3e, 0x0c, 0x6d, 0x3c, 0xbe,
  0x83, 0x18, 0x0a, 0x3d, 0xc0, 0x22, 0x83, 0x3e, 0x81, 0xa0, 0xf3, 0xbc,
  0xca, 0x60, 0x52, 0xbe, 0xba, 0xb8, 0x93, 0x3e, 0x8e, 0x35, 0xa6, 0xbd,
  0x45, 0x75, 0xa2, 0x3e, 0x4a, 0x6d, 0xd6, 0x3b, 0x2f, 0x95, 0x8c, 0x3e,
  0x4e, 0x71, 0x0c, 0x3d, 0xba, 0x3d, 0x8c, 0x3d, 0x19, 0xfc, 0x91, 0xbe,
  0x28, 0x04, 0x57, 0x3e, 0xd6, 0xff, 0xaf, 0x3e, 0x75, 0xd6, 0x8b, 0x3e,
  0x00, 0x20, 0x3e, 0xbe, 0xac, 0x43, 0xf2, 0x3d, 0x45, 0x58, 0x0e, 0x3d,
  0x6d, 0xe3, 0x5d, 0xbd, 0xc5, 0x25, 0x01, 0xbe, 0xda, 0xae, 0x16, 0x3f,
  0xeb, 0x82, 0x95, 0xbe, 0x52, 0xad, 0xdd, 0x3e, 0x18, 0x42, 0x05, 0x3e,
  0xb8, 0x24, 0x1c, 0x3e, 0x3c, 0xd3, 0x99, 0xbd, 0x78, 0xaf, 0x53, 0xbf,
  0x0b, 0xbc, 0xf3, 0xbd, 0xd7, 0x01, 0xf2, 0xbe, 0x4a, 0x93, 0xcf, 0x3e,
  0x91, 0x79, 0x83, 0xbe, 0x90, 0xfc, 0x3a, 0xbe, 0x22, 0x84, 0xc7, 0x3d,
  0x49, 0xf7, 0xa7, 0x3d, 0x95, 0x3d, 0x8f, 0x3b, 0xce, 0xdc, 0xad, 0xbe,
  0xbe, 0x50, 0xa7, 0x3e, 0x2c, 0xfc, 0x06, 0xbe, 0xd7, 0xcc, 0x03, 0x3d,
  0x62, 0x5b, 0xd9, 0xbc, 0x4f, 0xb9, 0x0c, 0x3e, 0x33, 0xfc, 0xd0, 0xbd,
  0x66, 0xc5, 0x8f, 0xbf, 0xa0, 0x74, 0xb9, 0x3c, 0xf5, 0x16, 0x0e, 0xbf,
  0x86, 0x41, 0x9b, 0x3e, 0x84, 0xc5, 0x5e, 0xbf, 0xd4, 0x90, 0xc2, 0x3c,
  0x10, 0x0a, 0x9d, 0x3d, 0x46, 0xde, 0xe7, 0x3d, 0x7a, 0x52, 0xad, 0x3d,
  0xe7, 0x57, 0xcc, 0xbd, 0x37, 0x7b, 0x6c, 0x3e, 0xcb, 0x2f, 0x95, 0xbe,
  0x2b, 0x38, 0x33, 0xbe, 0x78, 0xce, 0x4f, 0xbd, 0x0a, 0x36, 0x92, 0xbe,
  0xb0, 0x5e, 0x1d, 0xbf, 0x94, 0x21, 0x5f, 0x3c, 0xc2, 0x1d, 0x41, 0xbf,
  0xbc, 0x29, 0x16, 0x3d, 0x11, 0x4a, 0x5f, 0xbe, 0x46, 0xfb, 0xbe, 0x3e,
  0x81, 0x58, 0x87, 0x3d, 0x1e, 0xcc, 0x40, 0xbc, 0xcd, 0xf7, 0x4e, 0xbf,
  0x58, 0x3f, 0x96, 0x3c, 0x17, 0xcc, 0x08, 0xbe, 0xd5, 0x0b, 0x73, 0xbf,
  0x77, 0x32, 0x62, 0xbd, 0x29, 0xf5, 0x59, 0xbf, 0x58, 0x62, 0xa4, 0x3e,
  0x83, 0x61, 0x5f, 0xbe, 0xbd, 0x42, 0x3a, 0xbe, 0x5c, 0x61, 0x7d, 0xbd,
  0x9a, 0xb6, 0x43, 0x3e, 0x80, 0x08, 0xc9, 0x3e, 0xb6, 0x29, 0xa1, 0xbe,
  0xe3, 0xba, 0xb3, 0xbd, 0xad, 0xe3, 0x04, 0x3c, 0x8c, 0xb6, 0x99, 0x3e,
  0x85, 0x71, 0x55, 0xbf, 0x9b, 0x43, 0xc1, 0x3c, 0x3f, 0x3d, 0x05, 0xbf,
  0x2e, 0x66, 0x30, 0x3e, 0x5e, 0x6f, 0x00, 0x3e, 0x19, 0xf2, 0x66, 0xbf,
  0x2c, 0xf9, 0x1b, 0x3e, 0xdc, 0x86, 0xc1, 0xbe, 0x08, 0xd2, 0x0d, 0xbe,
  0xea, 0xd4, 0x37, 0x3d, 0x67, 0x8a, 0xf9, 0x3e, 0x75, 0x59, 0xb4, 0x3e,
  0xb4, 0xc8, 0x05, 0xbf, 0x42, 0x9e, 0x9a, 0xbe, 0xe6, 0x13, 0xe5, 0x3c,
  0x8d, 0x6f, 0x82, 0x3e, 0xac, 0x8f, 0x25, 0xbf, 0xc9, 0xcf, 0x98, 0xbd,
  0xd7, 0x64, 0x0c, 0xbd, 0xc9, 0x1e, 0x86, 0xbd, 0xde, 0xe1, 0x95, 0x3e,
  0xac, 0x5b, 0x67, 0xbf, 0x29, 0x8d, 0xac, 0x3b, 0x57, 0x06, 0x13, 0xbe,
  0xe1, 0x65, 0x82, 0xbd, 0xaf, 0x0e, 0x02, 0x3d, 0x8f, 0xa1, 0xea, 0x3e,
  0x1f, 0xa3, 0x69, 0x3d, 0x3d, 0x0b, 0xe0, 0xbe, 0xe6, 0x6d, 0xd1, 0xbe,
  0x78, 0x5c, 0x5b, 0x3d, 0xc2, 0x10, 0x13, 0x3e, 0x45, 0xe6, 0xa5, 0xbe,
  0x55, 0x7b, 0x1d, 0xbe, 0xe5, 0x08, 0x55, 0x3e, 0x30, 0x5c, 0x02, 0x3e,
  0xe4, 0x01, 0x13, 0x3d, 0x75, 0x29, 0x87, 0x3d, 0x71, 0xce, 0xfb, 0xbd,
  0xbc, 0x2b, 0x0a, 0xbf, 0xc9, 0x6a, 0x16, 0xbe, 0x3d, 0x53, 0x8d, 0x3d,
  0x3d, 0x57, 0xe0, 0x3e, 0x3e, 0x8e, 0x28, 0x3e, 0x33, 0x51, 0xc1, 0xbe,
  0x70, 0x0e, 0xba, 0xbd, 0xaf, 0x9d, 0x78, 0x3e, 0x40, 0x20, 0x93, 0xbc,
  0xc5, 0x6b, 0x92, 0xbf, 0x4c, 0x99, 0x90, 0x3e, 0x34, 0xd0, 0x68, 0x3e,
  0xed, 0xec, 0x8f, 0xbe, 0x59, 0x34, 0xdb, 0x3d, 0x94, 0x6a, 0x33, 0xbf,
  0x65, 0x34, 0x0a, 0xbe, 0x4e, 0xb5, 0xb8, 0xbe, 0x69, 0x90, 0x01, 0xbe,
  0x8b, 0x1c, 0x5a, 0x3b, 0xa3, 0xc6, 0x01, 0x3f, 0xce, 0xdc, 0xc6, 0xbe,
  0x21, 0xd3, 0x02, 0xbf, 0x57, 0x98, 0xd2, 0xbd, 0xd3, 0x83, 0xbf, 0x3d,
  0xc0, 0x46, 0xc0, 0x3d, 0xa5, 0xff, 0x82, 0x3c, 0xb6, 0xea, 0x8a, 0xbe,
  0xe8, 0xd4, 0xb6, 0x3e, 0x1d, 0x28, 0xe3, 0xbe, 0x9d, 0xf0, 0xb5, 0xbd,
  0x8c, 0x3a, 0x00, 0xbf, 0xdf, 0x39, 0x85, 0x3c, 0x48, 0x0e, 0x2c, 0xbf,
  0x03, 0x97, 0x80, 0xbd, 0x60, 0xec, 0xef, 0xbb, 0xcc, 0x0c, 0x29, 0x3f,
  0x06, 0x86, 0x09, 0x3e, 0x1b, 0xdf, 0xa0, 0xbe, 0xd2, 0x51, 0x92, 0x3e,
  0x8a, 0x71, 0x93, 0xbd, 0xab, 0xa9, 0xc5, 0xbd, 0x51, 0x1a, 0xf7, 0xbe,
  0xd3, 0xd8, 0x59, 0xbe, 0x43, 0xe9, 0x03, 0x3f, 0xfa, 0xe4, 0xc4, 0xbe,
  0x96, 0x38, 0x06, 0x3e, 0xcd, 0xfb, 0x22, 0xbc, 0xb8, 0x05, 0x47, 0xbe,
  0xcf, 0x82, 0x2a, 0xbf, 0x8d, 0xc9, 0x05, 0xbe, 0xa0, 0xda, 0xb0, 0x3d,
  0xe7, 0x40, 0x1b, 0x3e, 0xb6, 0x74, 0xf7, 0x3e, 0x72, 0x99, 0x08, 0x3c,
  0x72, 0xe3, 0xa2, 0x3e, 0xd3, 0x5a, 0x72, 0x3d, 0xa4, 0xcf, 0x7d, 0xbc,
  0xc7, 0x5d, 0x48, 0xbe, 0x8f, 0x88, 0x35, 0x3e, 0xf7, 0x9e, 0x02, 0x3d,
  0x78, 0x39, 0x86, 0xbe, 0xdf, 0xec, 0x90, 0xbc, 0xc5, 0x4d, 0x5e, 0xbf,
  0x9f, 0x54, 0x0c, 0xbe, 0x7b, 0x42, 0x4d, 0xbe, 0x16, 0x09, 0xae, 0xbd,
  0xc9, 0xd1, 0x17, 0x3e, 0x37, 0x25, 0x0c, 0x3f, 0x2f, 0x01, 0xb7, 0x3d,
  0xaa, 0x88, 0x02, 0xbe, 0x5a, 0xa4, 0x3f, 0xbe, 0x96, 0xc0, 0x92, 0x3c,
  0x22, 0xe6, 0x7f, 0x3d, 0xb5, 0x19, 0x53, 0xbd, 0xb0, 0x05, 0xad, 0x3d,
  0x1f, 0xcb, 0xa1, 0xbd, 0x2b, 0xa9, 0x9e, 0x3e, 0x88, 0x28, 0x50, 0x3e,
  0x07, 0x59, 0x07, 0xbf, 0xae, 0x69, 0x51, 0xbe, 0x67, 0xb8, 0xfd, 0xbe,
  0xe3, 0xff, 0x44, 0xbe, 0x87, 0x11, 0x51, 0x3d, 0xab, 0x42, 0x18, 0x3f,
  0xc6, 0x9a, 0xfb, 0x3d, 0x44, 0xcd, 0xe5, 0xbe, 0xb8, 0x25, 0x41, 0x3c,
  0x8c, 0x9d, 0x35, 0xbd, 0xe7, 0x05, 0x40, 0xbe, 0x79, 0xa4, 0xb3, 0xbe,
  0xc7, 0xec, 0x58, 0x3e, 0xc9, 0x45, 0xd7, 0x3d, 0x27, 0x04, 0x6d, 0x3e,
  0x2e, 0xb0, 0x61, 0xbd, 0x16, 0xde, 0x93, 0x3e, 0xc2, 0xd9, 0x2c, 0x3e,
  0x20, 0x4f, 0xd7, 0xbe, 0x34, 0xff, 0x08, 0x3c, 0x62, 0x23, 0x0b, 0xbd,
  0xc5, 0xf4, 0x88, 0x3e, 0x83, 0x55, 0x2d, 0x3d, 0x93, 0x5b, 0xcd, 0xbe,
  0x2d, 0xfe, 0xa1, 0x3e, 0xf9, 0x19, 0x09, 0x3d, 0x94, 0x0d, 0x22, 0xbd,
  0xea, 0x20, 0x43, 0xbf, 0x63, 0xda, 0x49, 0x3d, 0xc3, 0x22, 0x91, 0xbd,
  0x30, 0xb4, 0x9a, 0xbe, 0x8b, 0x54, 0x16, 0x3e, 0x8d, 0xd2, 0x0a, 0xbf,
  0xe5, 0x4c, 0x90, 0x3d, 0xb9, 0xf1, 0xaf, 0xbe, 0x4c, 0x28, 0x36, 0xbe,
  0xc0, 0x55, 0xd5, 0x39, 0xf2, 0xd1, 0xac, 0x3e, 0x29, 0xf4, 0x1a, 0x3e,
  0x1c, 0xe6, 0xa6, 0xbe, 0x22, 0x69, 0x81, 0x3e, 0xf5, 0xde, 0x26, 0x3e,
  0x5c, 0xde, 0x07, 0x3e, 0x28, 0x00, 0x68, 0xbf, 0xbd, 0x34, 0xa7, 0x3c,
  0x09, 0x74, 0x62, 0xbe, 0x9b, 0x4d, 0x88, 0xbe, 0x9b, 0xe7, 0x25, 0x3e,
  0xa3, 0x15, 0xa3, 0xbe, 0xca, 0x44, 0x51, 0x3e, 0x15, 0x5b, 0x16, 0xbf,
  0xe5, 0xe0, 0x08, 0xbe, 0x64, 0xa5, 0x04, 0xbe, 0xa3, 0x69, 0xd9, 0x3e,
  0x39, 0x3e, 0x9b, 0xbe, 0x73, 0x40, 0x76, 0xbe, 0xee, 0x75, 0x83, 0xbd,
  0xfb, 0x3e, 0x30, 0x3e, 0x23, 0x3d, 0x60, 0x3e, 0xf9, 0x32, 0x11, 0xbf,
  0x5a, 0xb0, 0x8a, 0x3d, 0xa6, 0x35, 0xff, 0x3d, 0x33, 0x59, 0x5b, 0xbf,
  0xb1, 0x83, 0x78, 0x3e, 0x06, 0x27, 0x27, 0xbf, 0xaf, 0xdf, 0x70, 0x3e,
  0x19, 0xc2, 0x24, 0xbe, 0xe4, 0x9c, 0xb0, 0xbd, 0x37, 0x18, 0xf5, 0x3d,
  0x8c, 0xed, 0xf4, 0xbd, 0xeb, 0x96, 0xfb, 0xbe, 0xc1, 0x36, 0x18, 0xbe,
  0xaa, 0xe8, 0x4f, 0x3c, 0x9a, 0x96, 0x26, 0xbd, 0xb8, 0xf3, 0x04, 0x3e,
  0x05, 0x8e, 0xc0, 0xbd, 0xc6, 0x80, 0x59, 0x3d, 0x1f, 0xa3, 0xda, 0x3d,
  0x93, 0x33, 0x55, 0xbe, 0x14, 0x76, 0xa4, 0x3e, 0x18, 0xb8, 0xfe, 0xbd,
  0xe2, 0xf4, 0xff, 0xff, 0x04, 0x00, 0x00, 0x00, 0x08, 0x00, 0x00, 0x00,
  0xff, 0xff, 0xff, 0xff, 0xe0, 0x00, 0x00, 0x00, 0xf6, 0xf4, 0xff, 0xff,
  0x04, 0x00, 0x00, 0x00, 0x0c, 0x00, 0x00, 0x00, 0xea, 0x59, 0x38, 0xbd,
  0x60, 0x29, 0xba, 0xbf, 0xc1, 0xbc, 0x36, 0x3f, 0x0e, 0xf5, 0xff, 0xff,
  0x04, 0x00, 0x00, 0x00, 0x40, 0x00, 0x00, 0x00, 0xc2, 0xd8, 0xfe, 0xbe,
  0x58, 0x6a, 0x2d, 0xbf, 0xe7, 0xb4, 0x85, 0x3f, 0x18, 0xd1, 0x73, 0x3e,
  0x30, 0x41, 0x86, 0xbe, 0x2b, 0xe1, 0x10, 0x3d, 0xf8, 0xd9, 0x3f, 0x3f,
  0x2c, 0x75, 0xed, 0xbd, 0x9f, 0xde, 0xbc, 0xbe, 0xc7, 0xfc, 0x41, 0x3e,
  0x31, 0x1d, 0x50, 0x3e, 0x09, 0x42, 0x4f, 0x3f, 0x9b, 0xcd, 0x1d, 0xbe,
  0xed, 0x37, 0x9f, 0xbe, 0x58, 0x5a, 0xac, 0xbe, 0x32, 0xb4, 0xc7, 0xbd,
  0x5a, 0xf5, 0xff, 0xff, 0x04, 0x00, 0x00, 0x00, 0x00, 0x08, 0x00, 0x00,
  0x14, 0xdd, 0x89, 0xbe, 0x3d, 0x0e, 0xf4, 0x3d, 0xbd, 0x19, 0x5e, 0xbc,
  0x3b, 0x51, 0x7b, 0xbe, 0xf3, 0x3d, 0xc1, 0xbd, 0x5f, 0xc9, 0xc8, 0xbe,
  0x6e, 0x33, 0x02, 0xbe, 0xef, 0x77, 0x54, 0x3b, 0x01, 0x4a, 0xd3, 0xbe,
  0x08, 0x83, 0x98, 0xbd, 0x4a, 0x6c, 0x83, 0xbd, 0xef, 0x9d, 0xac, 0xbd,
  0xb9, 0xe6, 0x50, 0xbe, 0x5a, 0x08, 0xc2, 0x3e, 0x68, 0xf6, 0x5c, 0x3e,
  0xf2, 0xed, 0x36, 0xbb, 0x16, 0xa8, 0xd1, 0xbd, 0xb5, 0xbb, 0x16, 0xbe,
  0x0a, 0x72, 0x67, 0xbd, 0xc4, 0x29, 0x37, 0xbe, 0x6d, 0x74, 0xfe, 0xbd,
  0x63, 0x82, 0x07, 0x3e, 0x20, 0x3c, 0xc5, 0xbd, 0x54, 0xdd, 0xb0, 0x3c,
  0x5b, 0x48, 0x9e, 0xbd, 0x33, 0xb1, 0xf5, 0x3d, 0x13, 0x45, 0x7b, 0x3d,
  0xdc, 0x1f, 0x00, 0xbe, 0x4c, 0x30, 0x46, 0xbd, 0x68, 0x29, 0xa4, 0xbc,
  0x85, 0x0f, 0xa7, 0x3e, 0x89, 0x28, 0x3f, 0x3e, 0x30, 0xad, 0xe9, 0x3c,
  0xd0, 0xd6, 0x34, 0xbd, 0x56, 0x1b, 0x4a, 0xbe, 0x1a, 0x2d, 0x53, 0xbe,
  0x9c, 0xd8, 0x29, 0x3e, 0xf9, 0x47, 0x9d, 0xbc, 0xc5, 0x35, 0xbf, 0xbd,
  0xa6, 0x7f, 0xe1, 0xbc, 0xea, 0x93, 0xc5, 0x3e, 0xa3, 0x28, 0x3f, 0x3e,
  0x5e, 0xe0, 0x65, 0xbe, 0x56, 0xf4, 0x95, 0x3e, 0xb8, 0x15, 0x15, 0xbd,
  0x55, 0x44, 0x61, 0xbd, 0x21, 0x72, 0xc7, 0xbd, 0x70, 0x81, 0x9b, 0xbd,
  0x88, 0xa8, 0xe4, 0xbd, 0xc0, 0xc7, 0x8d, 0x3d, 0xb5, 0x54, 0x10, 0xbe,
  0xeb, 0x00, 0x92, 0xbd, 0x63, 0x1f, 0x01, 0x3f, 0xcd, 0xe9, 0xc4, 0xbe,
  0xab, 0x9d, 0x9d, 0xbe, 0xfc, 0xa7, 0x04, 0x3d, 0x67, 0x67, 0xd3, 0xbe,
  0xe5, 0xdc, 0x9d, 0xbc, 0x47, 0xd1, 0xa8, 0x3d, 0xb0, 0xd8, 0xa2, 0xbe,
  0x67, 0x9c, 0x84, 0xbe, 0x3b, 0x13, 0x02, 0xbf, 0xf3, 0x34, 0x39, 0xbe,
  0x7a, 0xb6, 0x5f, 0x3e, 0x4b, 0x8f, 0xc3, 0xbe, 0x62, 0x92, 0xd3, 0x3e,
  0x09, 0x79, 0x4a, 0xbd, 0xa7, 0xc9, 0x03, 0xbf, 0xde, 0xbf, 0x48, 0xbe,
  0x19, 0xa0, 0x8c, 0xbe, 0xd6, 0x29, 0x35, 0xbc, 0x6f, 0xc3, 0x1c, 0xbd,
  0xa7, 0x38, 0x12, 0x3e, 0x34, 0x59, 0x99, 0x3e, 0x41, 0xfa, 0xee, 0x3d,
  0xa6, 0x7d, 0x4d, 0x3e, 0xd4, 0x40, 0x06, 0x3e, 0x86, 0x23, 0xaf, 0xbc,
  0x4c, 0xb4, 0x95, 0x3b, 0xf9, 0xff, 0xc1, 0x3e, 0x22, 0x3c, 0xae, 0xbd,
  0xa7, 0x6b, 0xab, 0x3e, 0xbf, 0xfc, 0x5d, 0x3c, 0x30, 0xf0, 0x0f, 0xbe,
  0x9d, 0xb1, 0xd0, 0x3c, 0x8b, 0x08, 0x44, 0xbd, 0x73, 0x95, 0xa3, 0xbb,
  0xcb, 0xc0, 0x5e, 0x3e, 0xbd, 0x2e, 0x42, 0xbe, 0x46, 0x09, 0xb5, 0x3e,
  0x7d, 0x7f, 0x1c, 0xbe, 0x6f, 0x41, 0x8a, 0xbe, 0x6c, 0x45, 0xab, 0xbd,
  0x49, 0xa5, 0x64, 0xbd, 0x7c, 0xc8, 0x00, 0xbd, 0x8b, 0x01, 0x49, 0xbe,
  0x3b, 0x7f, 0xb2, 0x3d, 0x15, 0x5f, 0x20, 0x3e, 0x5b, 0x0b, 0x5e, 0xbe,
  0x44, 0x11, 0x01, 0x3d, 0x47, 0x7d, 0x96, 0xbd, 0x4f, 0xf6, 0x14, 0x3e,
  0x72, 0xb3, 0x8d, 0x3e, 0x14, 0x50, 0x93, 0xbe, 0x18, 0x16, 0x50, 0x3e,
  0xe8, 0xce, 0x75, 0xbf, 0x6b, 0x37, 0xaf, 0xbe, 0xe3, 0xa0, 0xbe, 0x3e,
  0x03, 0x49, 0x60, 0xbd, 0x93, 0x41, 0x91, 0x3e, 0x3b, 0x1c, 0x13, 0x3d,
  0x78, 0x32, 0xaa, 0xbf, 0x18, 0xbb, 0x01, 0x3d, 0xb3, 0xbe, 0x41, 0xbf,
  0x6c, 0x40, 0x7c, 0xbe, 0x09, 0x38, 0xb3, 0x3c, 0x9e, 0xe5, 0x37, 0xbd,
  0x9d, 0xfe, 0x0d, 0xbe, 0xb3, 0x86, 0xa9, 0x3d, 0x6c, 0x4a, 0x73, 0xbf,
  0x56, 0xf4, 0x79, 0x3d, 0x15, 0xfe, 0xd8, 0xbe, 0x29, 0x86, 0x4b, 0xbd,
  0xcc, 0x2f, 0xe5, 0x3d, 0x50, 0xcb, 0x52, 0xbb, 0xde, 0xac, 0xef, 0x3d,
  0x5e, 0xe2, 0x56, 0xbe, 0x40, 0x4d, 0x18, 0xbf, 0x19, 0xbf, 0x44, 0x3e,
  0xce, 0x89, 0x2d, 0xbf, 0x1e, 0x27, 0x54, 0x3f, 0xa1, 0x40, 0x7a, 0xbc,
  0x53, 0x01, 0x32, 0x3e, 0xd0, 0xdb, 0x4e, 0xbf, 0x06, 0x34, 0x2e, 0xbf,
  0xbc, 0xa4, 0x30, 0x3e, 0x2f, 0xdc, 0x6c, 0x3d, 0x62, 0xa7, 0x66, 0xbd,
  0x90, 0xe4, 0xae, 0xbd, 0x63, 0xb3, 0x97, 0xbd, 0xad, 0x53, 0x0b, 0x3e,
  0x3a, 0xa8, 0x52, 0xbf, 0x89, 0xd8, 0xe1, 0xbe, 0xd7, 0xa2, 0x8d, 0x3d,
  0x3b, 0x2d, 0x90, 0xbc, 0xd1, 0x6e, 0x12, 0x3e, 0x0c, 0x17, 0x6c, 0xbe,
  0x45, 0x5c, 0xd8, 0xbd, 0x9f, 0x07, 0x96, 0x3b, 0x32, 0x57, 0xed, 0xbe,
  0x8d, 0x6a, 0x8e, 0xbd, 0x61, 0xce, 0xe5, 0xbe, 0xb6, 0x12, 0x09, 0xbe,
  0xc2, 0x43, 0xc5, 0x3d, 0x25, 0x0c, 0xa4, 0xbe, 0x33, 0x12, 0x85, 0xbd,
  0xb0, 0x66, 0x85, 0xbd, 0x74, 0xb4, 0x2f, 0xbe, 0xea, 0xe6, 0xe1, 0xbe,
  0x44, 0xe0, 0x01, 0xbf, 0x15, 0xc8, 0x4e, 0x3d, 0xb1, 0x98, 0x57, 0xbe,
  0xbe, 0xe3, 0x2c, 0xbe, 0x92, 0x9e, 0xb1, 0x3c, 0x26, 0x03, 0x07, 0xbd,
  0x0e, 0x07, 0x1b, 0xbf, 0x9c, 0xf0, 0xcf, 0xbf, 0x88, 0x92, 0x5f, 0xbf,
  0xf1, 0xe7, 0x8b, 0x3d, 0x32, 0xe7, 0x17, 0xbf, 0x49, 0x9d, 0x03, 0xbe,
  0x04, 0x69, 0x97, 0x3d, 0xd9, 0xb8, 0xe8, 0xbd, 0xe5, 0x8f, 0xaa, 0xbe,
  0xef, 0xfb, 0xb7, 0xbf, 0x19, 0xc3, 0x59, 0xbf, 0x39, 0xa3, 0x95, 0x3d,
  0x5e, 0xff, 0x2d, 0x3e, 0xdb, 0x96, 0xb4, 0x3c, 0x36, 0xb2, 0x56, 0x3e,
  0x43, 0x21, 0x65, 0x3e, 0xc4, 0x4d, 0x46, 0x3d, 0x77, 0x80, 0x22, 0xbf,
  0x5c, 0x62, 0x8e, 0xbe, 0x60, 0x98, 0xa9, 0xbc, 0x47, 0x55, 0x5e, 0xbe,
  0xe0, 0x7d, 0x15, 0x3f, 0x91, 0x5b, 0x4a, 0x3d, 0xf4, 0x61, 0xe5, 0x3c,
  0x61, 0xd4, 0x28, 0x3e, 0x55, 0x34, 0x4d, 0xbe, 0x5f, 0x44, 0x43, 0xbe,
  0x58, 0x10, 0x74, 0xbf, 0x38, 0x86, 0x2e, 0xbd, 0xf8, 0xb8, 0x29, 0x3c,
  0x56, 0x56, 0x46, 0xbf, 0xc2, 0xb4, 0x3e, 0xbf, 0x57, 0xf6, 0x16, 0xbd,
  0xa7, 0x01, 0x95, 0xbe, 0x4e, 0x83, 0x45, 0x3c, 0xf2, 0x70, 0x86, 0xbe,
